#version: 0.2
a n
Ġ d
e r
e n
a r
Ġ m
l a
an g
Ġ s
Ġ p
i n
a t
Ġ k
Ġ t
Ġ b
d a
Ġd i
u n
a s
k an
e m
a h
a l
y a
a m
Ġs e
a da
Ġm en
s i
y ang
Ġd an
Ġ yang
t u
o n
g a
Ġ S
a k
ar i
la h
i l
e s
o r
d i
Ġk e
i s
Ġb er
i k
Ġ P
en g
Ġ A
b u
Ġt er
u s
t a
o l
in g
e l
u m
Ġ K
u r
Ġ in
Ġ M
Ġd ari
ar a
b a
t i
n ya
la m
a p
Ġ B
Ġp er
e k
Ġin i
a kan
Ġm em
i t
Ġ 1
u k
Ġ I
j a
Ġ D
Ġ "
i a
Ġ T
Ġ ada
eng an
Ġp ada
Ġ j
u p
g i
tu k
Ġd engan
Ġ h
i m
d o
u l
t e
i r
a lam
Ġ (
as i
un g
am a
Ġada lah
u t
Ġ un
r o
Ġm er
Ġ 2
e t
Ġ l
Ġmen g
Ġun tuk
Ġd alam
o m
r i
e si
an ya
e h
Ġ C
e b
Ġ J
Ġp en
t er
ah un
Ġ R
Ġ r
s e
ga i
e la
Ġ n
at a
Ġ N
Ġ f
Ġt ahun
Ġ la
Ġ L
ol eh
w a
ba gai
Ġb a
Ġ g
p er
Ġ oleh
Ġ a
p at
Ġ H
i d
Ġ2 0
Ġj u
ĠI n
em b
x t
en do
Ġ1 9
te xt
endo f
< |
| >
endof text
Ġse bagai
Ġ G
r a
i da
i h
i tu
ja di
bu t
o k
Ġju ga
Ġt e
as a
u h
e g
an d
a i
o s
up akan
Ġmer upakan
an t
e p
Ġ F
am p
Ġ c
or ang
at u
on g
at an
al i
gi an
en t
em u
ang an
Ġmen jadi
se but
u b
p esi
Ġb ah
er i
an a
Ġs a
pesi es
Ġ U
u la
Ġ w
ida k
u d
ata u
Ġ E
Ġ atau
Ġt idak
Ġp em
Ġ W
ek a
u si
Ġper t
ik a
o p
o t
Ġmen y
o ta
c h
Ġ &
Ġk a
b ang
Ġba gian
ang g
Ġ itu
i p
u a
t r
u kan
ah an
Ġter sebut
bu ah
il m
Ġp eng
a d
Ġk ar
ik i
at i
0 0
Ġ20 1
en a
an j
l u
Ġ Y
Ġse buah
di ri
e d
Ġ ia
c ara
es ar
ap at
Ġ O
Ġse k
ĠA n
i si
Ġd apat
in t
ĠP er
am b
Ġmem il
g un
a la
Ġdi k
Ġp ro
Ġmer eka
Ġ ak
" .
Ġte lah
in ya
Ġ as
ang k
Ġla in
u an
i la
o d
es a
Ġmemil iki
em pat
Ġs pesies
s a
ap a
r an
Ġ or
Ġs er
per ti
t an
Ġs atu
Ġse b
d on
a g
Ġ20 0
Ġmem b
eb ih
) ,
Ġbah wa
l i
ar an
o b
Ġk er
Ġke p
w an
Ġm ela
te lah
u da
y ah
esi a
â Ģ
Ġpert ama
) .
ĠS e
h an
a b
ta p
Ġs en
Ġ orang
Ġ âĢ
don esia
Ġb i
on al
Ġl ebih
is t
eb er
y u
ĠIn donesia
di an
h ir
gun akan
e c
ing ga
il i
g r
Ġ 3
la s
Ġ V
an i
a ya
eber apa
a an
Ġkar ena
h e
at as
anya k
Ġm el
ĠA r
Ġse orang
Ġdi p
Ġ akan
Ġm as
Ġ ant
ĠP ada
t h
Ġse perti
o g
emu dian
en d
Ġk on
as il
da pat
ung an
la k
g al
ĠA m
ro p
om p
Ġdi t
ar kan
ing k
eg ara
m a
v er
Ġ an
Ġg en
n i
a ja
Ġb esar
Ġse cara
di a
o si
" ,
Ġmen c
o h
l e
u j
al an
am an
Ġse j
Ġte tap
al ia
Ġb ar
Ġdi b
i b
i c
e w
Ġka yu
i an
en al
lam a
Ġber k
Ġk emudian
o v
Ġf am
Ġdi s
Ġsa at
r e
Ġs em
el um
ĠA l
m an
en tuk
Ġb eberapa
im p
d uk
Ġor do
emb er
ap os
Ġk ota
k a
b it
ol ong
bu at
ĠI a
ula i
Ġ ya
em p
Ġke c
ĠS pesies
id up
g an
t as
a c
Ġb anyak
as anya
Ġ al
Ġk ali
er ah
an nya
Ġgen us
Ġter g
o id
g u
ar ga
Ġfam ili
e a
Ġmen ga
Ġber s
ĠC h
tu s
Ġ o
Ġf ilm
angg al
Ġant ara
Ġse telah
m as
P ada
ur an
er int
Ġke las
Ġs u
ar ta
ila yah
an da
Ġbi asanya
Ġ ut
un ya
un ia
et ak
um bang
Ġterg olong
ter oid
Ġ v
Ġmeny e
it as
e da
Ġt anggal
l an
ar ah
a w
ang kan
j u
tu r
Ġter l
anj ang
t or
ĠD i
Ġ 4
Ġd ua
Ġp ara
Ġk em
u ti
Ġm usi
Ġk es
Ġse l
um um
S e
k u
usi a
ul an
Ġmeng h
y ar
Ġsa lah
un an
b er
Ġ ;
er ika
o da
am un
Ġd a
Ġ1 8
Ġber b
Ġtetap i
asi onal
ĠM ar
im a
Ġp r
in a
e v
Ġ atas
Ġ19 9
s t
Ġpen d
Ġn ama
Ġn egara
Ġp as
ĠK a
Ġs amp
Ġke d
Ġf il
Ġdi m
ĠAm erika
Ġkep ada
Ġs ang
ĠS ela
ba b
do m
Ġw ilayah
ent ara
Ġdi r
ida e
it ar
Ġ 5
Ġm asa
us ah
or m
w al
ing gal
as an
ti f
um lah
Ġ& #
a y
Ġya itu
ek s
k i
ar ang
in an
Ġdi a
Ġk umbang
Ġke t
ing an
er ik
Ġsen diri
ing gi
Ġh idup
ar t
ter a
ingk at
Ġas teroid
Ġbah asa
Ġh ingga
ur uh
n a
u g
ada p
Ġt an
la t
Ġter b
i ga
ver si
Ġh anya
Ġdi gunakan
ĠB ar
un c
ang ga
o la
en da
en si
on s
at ang
asi h
ĠAn im
Ġt empat
emb ali
un j
uk u
Ġak hir
Ġber t
is a
Ġser ta
od e
ĠP ro
Ġdi ter
er a
Ġfil um
ing dom
i g
ĠAnim alia
ar d
Ġseb elum
Ġsamp ai
Ġk ingdom
ĠI s
ĠAr th
Ġse p
uda h
ĠK e
1 9
ari s
c ta
Ġsang at
h a
Ġmem per
ud uk
Ġt im
Ġbar u
Ġ umum
ol o
or i
in i
Ġ ilm
o lah
Ġdi sebut
on t
Ġdi per
rop oda
ĠIn se
as al
Ġse h
ĠArth ropoda
ĠInse cta
Ġlain nya
d ang
s u
i ah
w ah
Ġ angg
s es
Ġpen y
Ġk embali
Ġsek itar
eng ah
Ġl u
p an
Ġ 6
Ġber h
Ġk om
Ġp emb
l ik
Ġd esa
ĠA g
ung k
Ġse lama
Ġan ak
ent ang
m e
Ġterl etak
Ġpem erint
ĠP en
i ta
Ġper n
Ġdik enal
Ġmeng gunakan
Ġbers ama
ter n
ak at
Ġs ama
t asi
Ġmem buat
mas uk
ĠâĢ ĵ
Ġmem p
Ġter h
a di
ak a
am atan
e f
bab kan
Ġa g
bu m
a j
it ik
er n
o c
ĠT im
Ġo f
di si
Ġd unia
Ġ ja
um p
e ja
u c
um ah
Ġke l
lu i
in d
o w
at akan
Ġber p
Ġber asal
pat en
ul is
Ġh ari
e i
em en
Ġa wal
Ġw ak
en c
Ġb ulan
Ġ Z
ur ut
a in
bit kan
Ġ i
in da
k s
t ar
lah ir
Ġm ulai
Ġked ua
d en
Ġangg ota
in si
a wa
ĠU ni
e ta
Ġm asih
Ġber ada
Ġ 7
Ġp anjang
bu paten
ĠP r
Ġ19 8
ĠS a
al ing
ĠM en
v a
il an
il is
ah u
di k
el i
Ġp ol
Ġda erah
ala t
eri kan
Ġmela lui
2 0
erik at
ĠS erikat
ba d
ik ut
Ġket ika
er ja
b at
gr is
ut ra
ap i
ĠB el
olo gi
Ġmenye babkan
Ġseh ingga
ran c
ar us
en tu
yar akat
ĠIn g
ĠC ol
Ġm an
Ġterh adap
Ġb isa
Ġ( "
up un
Ġse la
p a
u ari
Ġm a
Ġter masuk
ub ah
ĠJ ep
Ġm at
Ġ ga
Ġla gu
Ġditer bitkan
ĠS h
bu han
Ġke lu
ĠB r
emu kan
Ġut ama
ĠIng gris
00 0
ang sa
c a
Ġd e
ba gian
Ġm ana
da s
un i
it er
di kan
Ġsej ak
Ġter k
ĠA p
Ġmen dapat
at kan
ang s
Ġwak tu
ut an
ist em
Ġba wah
ĠA s
ah kan
Ġ 8
ĠN ama
Ġba gi
Ġs udah
Ġk omp
Ġdi lak
Ġs emu
Ġber bagai
ĠJep ang
si a
Ġm il
k ukan
Ġa ir
ela s
y an
es t
Ġt entang
il ih
v insi
it an
Ġm e
eg eri
y c
is asi
ĠB er
Ġ -
Ġpern ah
Ġh al
e op
Ġsu atu
Ġp ela
ya k
Ġ ar
usah aan
en is
Ġr umah
Ġber j
y i
un d
Ġk h
ĠT er
Ġ1 0
Ġa d
ĠI I
ur a
ek erja
er man
Ġilm iah
n ama
Ġmas yarakat
an tu
Ġmen d
p or
Ġk ap
h i
et er
eng g
Ġt iga
us t
Ġ19 7
ak hir
Ġpend uduk
m i
Ġdi l
am anya
Ġr es
Ġter dapat
Ġter jadi
Ġmela kukan
ti kan
imp in
ĠS M
Ġter diri
9 3
ĠD ia
is ti
duk si
ĠD esa
an c
ter i
e ti
es k
9 1
di dikan
ah ari
Ġt ak
d e
Ġ19 6
Ġp aling
in ta
Ġdi te
ĠU t
ĠKa bupaten
ĠJ awa
on om
bu r
ih at
ek at
Ġt inggi
eop tera
Ġt um
bu h
Ġke b
Ġsem entara
Ġba ik
ti ap
ik asi
us at
Ġkec il
Ġmusi k
t ing
angs ung
ĠK ar
Ġter p
Ġk u
ĠN amun
ĠT i
j ar
n e
eri ta
u ang
diri kan
Ġs istem
aja an
ĠD alam
Ġ19 4
ĠAn g
l is
ĠSela tan
ar va
das arkan
ula u
anj ut
angk at
ang i
ĠM er
ĠTim ur
ub lik
Ġ1 5
an ta
Ġ 0
omp ok
ang unan
" )
Ġsel uruh
ap ai
w at
ĠK r
Ġmen inggal
h o
Ġdilak ukan
is me
ranc is
Ġsemu a
ĠF ilm
Ġa bad
ul i
Ġh arus
ĠP em
ĠU n
Ġdi tu
ĠBar at
Ġmen er
er an
Ġd in
as ar
ud ara
ĠJ erman
Ġ 9
y at
is tr
ar k
Ġmem ba
Ġker us
amb il
Ġt el
er eja
Ġk ur
Ġmen j
Ġser ing
uk um
ek n
un gai
uk up
Ġal bum
in e
Ġdi ri
Ġber nama
ĠSe telah
Ġmusi m
ur u
Ġse su
ĠK ota
ĠCol eoptera
in kan
unj uk
u tus
j ak
Ġkerus akan
d ara
Ġter t
versi tas
ir an
ob er
up a
ti v
Ġj umlah
um i
angga p
il l
Ġb atang
Ġ1 2
ah asa
Ġc ukup
ĠD a
Ġt he
ĠS ep
ĠC er
ĠBel anda
gr am
Ġper s
ĠL a
el l
Ġberh asil
Ġper usahaan
esi den
Ġla gi
el ar
ĠS ek
Ġp lan
Ġseb esar
Ġt and
ĠK or
Ġ1 7
Ġkon s
ga b
Ġdi h
id ang
Ġper m
as t
ap an
id e
f at
ip un
eng k
e bu
Ġn amun
ĠK ep
bang un
ak si
ĠP rancis
L arva
angk a
esk ipun
Ġm akan
rop a
e lah
Ġ ro
ak arta
Ġmat ahari
Ġke h
amp il
Ġkar ya
Ġakhir nya
c k
us us
ek si
f i
Ġs i
ub ungan
ul u
t on
Ġb ela
Ã ©
Ġ1 6
ong k
Ġ19 5
Ġsek olah
eb or
t o
ĠE ropa
Ġb u
ar uh
Ġtand uk
Ġ z
Ġ X
us tr
r y
ĠK er
per asi
Ġp el
ak ai
Ġse tiap
ĠSela in
ar ti
Ġdite bang
Ġr e
am i
esa wat
Ġumum nya
Ġmeng ebor
amb yc
ĠCer ambyc
ĠCerambyc idae
Ġber ikut
Ġmemb erikan
Ġ wa
osi si
Ġp un
ĠD ip
Ġb entuk
ea e
in al
Ġd ekat
er s
ĠA k
Ġke ku
Ġpeng h
er al
arta i
or d
em ba
ĠD e
ĠJ an
Ġs eri
Ġpemerint ahan
T he
uh an
Ġpas ukan
ĠK ec
ĠP eng
k t
ĠO r
Ġ ek
ĠM as
al l
Ġ en
Ġmen ja
Ġper k
engg ara
Ġse bagian
Ġlu ar
ĠR om
unya i
Ġ1 3
at at
Ġk l
Ġmeng en
Ġ1 1
Ġsebelum nya
D i
Ġdir ilis
j i
Ġj ar
Ġman usia
Ġm uda
us an
r il
Ġ eks
ar anya
ĠD es
Ġm od
ur at
ran s
Ġmemp unyai
Ġd em
al ur
ar na
Ġla lat
Ġmas uk
Ġpro ses
Ġber l
Ġt u
as is
gab ung
Ġke ti
Ġtum buhan
ant an
o u
b an
Ġs p
Ġtan ah
ĠUt ara
Ġs t
Ġ1 4
ti an
Ġla ut
Ġpol itik
um ber
Ġter c
Ġpen didikan
ebu la
ĠT he
. .
ma in
ĠJ akarta
Ġkap al
bu ka
i wa
tern asional
Ġpemerint ah
f orm
Ġp op
e pat
er b
um at
unc ul
i ch
Ġt ra
Ġm aka
Ġl ok
tasi un
Ġn ebula
Ġj enis
ati f
en ar
ĠN ov
ul ang
in asi
ĠS o
Ġber ubah
uk a
Ġse d
si s
Ġp ut
Ġkelu arga
ĠK om
r on
o y
di s
Ġ lahir
m en
Ġsek arang
onom i
r es
ĠIs lam
1 2
Ġpem ain
us tus
Ġk ata
Ġmem en
ĠM a
Ġ at
u asa
kan nya
bu k
t ember
l y
g er
ing in
Ġla lu
ĠM ei
Ġber main
ir a
at or
Ġse t
Ġ Q
ĠJ uni
ĠJ uli
Ġ Â
eti si
ĠL alat
Ġlu as
ĠDip tera
ĠB a
ĠIn dia
Ġdi ba
ur n
Ġp esawat
ĠS t
Ġsej arah
Ġkh usus
ĠR aja
ĠDes ember
kt ober
f f
. "
Ġb ekerja
Ġas al
Ġ201 0
Ġpen ga
u tu
op h
Ġmendapat kan
Ġma upun
emb angan
ĠUni versitas
ar l
usah a
ĠK at
ur i
ĠO ktober
Ġkec amatan
2 00
Ġb idang
Ġk al
g en
Ġdit emukan
Ġdi c
Ġberb eda
Ġper ang
tu a
Ġkel ompok
anta i
Ġmenc apai
Ġt inggal
ĠSep tember
Ġmeny er
ĠM an
Ġj alan
ĠMar et
Ġter akhir
ĠA b
Ġm uncul
ati on
Ġ and
Ġor gan
ĠN egeri
arga an
Ġa cara
ĠAg ustus
inda h
ĠL e
Ġh asil
Ġbar at
emb ang
Ġ empat
l t
i et
Ġres mi
ĠKec amatan
Ġmeny atakan
ĠS em
ik uti
ur kan
ĠMer eka
ba ik
ĠJan uari
duk ung
Ġ ap
and ar
Ġterk enal
ĠPer t
ĠPer ang
ĠH al
osi al
ĠAp ril
g t
q u
ĠP a
Ġber dasarkan
j ah
en s
eb r
g e
tr uk
ag n
Ġdi buat
ir i
c i
v e
n is
Ġh ukum
Ġsek ali
ta kan
ĠT h
Ġp usat
ongk ok
Ġpen ting
Ġb ola
Ġdi anggap
Ġj iwa
Ġp es
im an
Ġkon t
at ur
ari k
m p
i j
ĠD unia
l o
Ġk m
f r
Ġju ta
e gi
int ang
ĠE n
ul tan
ila i
Ġtan pa
ĠKor ea
ak s
t ik
P er
Ġl angsung
asil kan
Ġor bit
ist en
ra b
and ung
ĠTi ongkok
unjuk kan
ĠA ustr
Ġdi g
lah an
emp uan
Ġag ar
ĠA c
Ġ201 1
ĠNov ember
ad ang
ev isi
Ġt ekn
Ġ19 3
Ġper j
et ika
ĠI t
Ġ el
Ġmen gi
ani ta
ĠP ol
ai kan
ung si
om or
Ġr aja
ari a
Ġmengen ai
Ġse dang
ĠL i
Ġd ep
ĠR ep
Ġper i
ahu i
ĠM us
ta b
Ġsela tan
ul er
om b
s an
ungk in
Ġ lama
Ġn asional
lam i
c e
r up
Ġb ukan
tu di
el u
ut ama
Ġ alam
utra dara
la ba
Ġpeng gun
ĠT e
ĠN ew
Ġt uj
Ġmela wan
ok oh
Ġkom un
Ġ201 2
and ingan
er ta
et ahui
Ġtra disi
Ġag ama
y e
Ġin d
Ġmeng g
Se perti
ĠPro vinsi
w ak
ro m
Ġut ara
as kan
Ġb uku
el uruh
Ġk ak
1 0
m in
f tar
Ġg elar
s on
Ġb atu
Ġterb entuk
is ah
ĠT engah
is ar
Ġ e
un t
an k
as k
se p
Ġi bu
ĠâĢ Ŀ
Ġdi dirikan
d an
f er
Ġkur ang
r at
Ġmen ik
ada kan
ro duksi
D alam
Ġpen c
Ġtu buh
si k
Ġ ob
ebr uari
Ġ201 4
Ġtim ur
ar at
Ġsa ja
ĠD em
un uh
o ur
Ġ201 3
Ġmil iter
1 8
on i
w i
al nya
Ġmenga lami
Ġkl ub
ti tu
ib at
ak yat
b i
s k
ih ak
Ġterc atat
c aya
Ġm ungkin
Ġm es
ara an
enc ana
Ġp e
Ġke k
Ġsu ara
ĠF ebruari
em a
ust ri
y ata
un ung
Ġper empuan
ati an
Ġa yah
Ġ3 0
m al
o ba
ol usi
Ġpro gram
Ġber gabung
Ġk ita
Ġ200 9
is an
ĠN asional
us un
al es
Ġh ubungan
w ard
Ġp osisi
l in
Ġmener ima
j aran
Ġb angsa
ilih an
Ġterb esar
Ġ200 7
as ti
Ġber m
ak ar
Ġ200 8
w asan
Ġperm uk
m ad
and ing
b ar
f a
z a
Ġg er
Ġsej umlah
L alat
ari er
Ġ201 5
Ġmen ulis
e y
Ġc ara
Ġpro vinsi
ap kan
Ġs uku
Ġk r
ada an
Ġsesu atu
Ġmen unjukkan
Ġw anita
emb angkan
j o
Ġditu lis
ĠRep ublik
ĠPr esiden
uda ya
um en
Ġt ingkat
ĠK on
I I
asa an
og ra
Ġber arti
Ġmeng ambil
Ġter utama
ĠD engan
Ġb umi
Ġ ri
Ġt rans
A n
Ġ2 5
at us
d ul
Ġj ika
ula si
Ġbah an
Ġs ub
Ġplan et
on a
Ġker eta
Ġya k
Ġdim ulai
Ġd asar
Ġsen i
atas an
em an
Ġt i
ai an
Ġk or
enda h
Ġ201 6
ak in
Ġj alur
Ġketi ga
amp ung
Ġs in
el es
Ġdi bangun
ĠM ala
Ġ lam
Ġmen emukan
Ġsep ak
ĠM e
Ġ200 6
Ġs osial
Ġp ec
ĠB eberapa
j ata
ĠIt alia
ob il
r is
l im
ĠY un
Ġp ula
ag u
r ama
ĠG ereja
Ġ art
Ġm in
Ġbi asa
Ġtel evisi
entu kan
emp uran
gan tikan
ol ik
ot o
y l
Ġmemb entuk
Ġkep ala
Ġp an
Ġmakan an
ĠMen teri
ul it
ud ul
Ġm agn
ĠA sia
amp ir
ĠAng k
ĠS in
Ġkelu ar
Ġilm u
y ek
erint ah
emu i
ti da
an an
Ġs umber
Ġseb elah
ad em
Ġmen ingkat
Ġp ulau
w as
ĠA d
Ġ api
Ġmenja bat
ud d
ĠâĢ ľ
s en
eb ar
Ġ apa
ĠS p
Ġper b
h t
Ġ =
in c
Ġmem as
Ġk ol
s p
ĠM ah
Ġmenik ah
ur un
Ġb elum
asi kan
Ġdi d
ĠK al
Ġpermuk aan
ĠE ks
gi atan
or e
Ġp utra
Ġperi ode
ĠR usia
u i
I n
ont oh
Ġker ajaan
Ġl ima
ĠM at
on ia
ar e
iki an
Ġter us
emba ga
Ġmen ya
Ġb in
anj ian
idup an
Ġ isti
ĠT ahun
ĠKer ajaan
1 6
f t
Ġs itu
bu l
Ġs k
ĠKr isten
ĠS ur
a ih
or a
ak ter
A N
Ġmem ulai
ek tur
Ġn egeri
Ġ versi
ti on
an ak
Ġja uh
amp u
uj u
Ġ ot
ide o
el enggara
ĠG r
anya kan
Ġsed angkan
im b
r ia
z i
Ġpen ulis
ĠJ o
p ada
uk i
Ġj am
un gi
mas ing
angg ung
ĠS en
ok si
ĠS ch
ub ahan
es s
ung g
Ġp ihak
oh n
ol og
al itas
Ġz aman
ent ri
Ġl ingk
1 5
y o
ari an
us k
ĠS u
it y
and ang
eluruh an
Ġ udara
bu tu
Ġm ut
ĠM al
Ġpert andingan
Ġh ak
ĠA ir
at uh
Ġmengh asilkan
an yi
en ang
itan ia
ĠS am
Ġbah kan
Ġek onomi
Ġr ek
Ġmemen angkan
Ġdir inya
ĠP as
ĠH ar
Ġyak ni
ĠK es
Ġin ternasional
Ġberj udul
Se telah
Ġpr im
Ġs ungai
Ġdib erikan
ĠS i
Ġmas ing
ĠYun ani
1 3
ĠP ara
or k
Ġd atang
oh on
Ġm ampu
Ġkes eluruhan
Ġt engah
f ikasi
Ġm is
Ġb udaya
ing gu
Ġka wasan
Ġmeng atakan
Ġmen uju
al is
ma inan
a v
Ġk arier
Ġpend ek
Ġs tasiun
Ġpro duksi
Ġmel ihat
r et
Ġ200 5
form asi
ul uh
Ġm ah
Ġ ist
Ġorgan isasi
ĠAngk atan
aw i
da m
Ġmenye but
dik it
un o
Ġg rup
ĠR aya
ĠS ungai
Ġh i
1 7
Ġs ing
Ġb angunan
ĠP ang
Ġ201 7
Ġ2 4
Ġke giatan
Ġd ok
yan an
ĠBr itania
Ġ19 2
ĠI r
Ġkeh idupan
truk tur
Ġt okoh
Ġsep anjang
Ġmemb antu
Ġper an
ampil kan
Ġb ur
Ġjar ingan
ĠIn i
itu do
lah kan
Ġmeng ikuti
ĠSa at
Ġw arga
o perasi
Ġm ak
uti h
ĠA rab
ĠS eb
Ġmen urut
is s
ĠO l
g us
istr ik
k e
Ġmut lak
Ġdit emui
Ġmemba wa
Ġm eskipun
ĠG e
j id
ĠD an
Ġpen er
Ġ ep
s ama
Ġdi se
Ġb and
l and
un ga
is ata
ĠLa ut
ĠB o
Ġp et
ip uti
is aran
1 4
Ġm us
ĠSek olah
b atan
si tas
Ġbela k
amp ak
Ġbu ah
g as
ant ung
Ġseb anyak
a ba
Ġak ibat
ĠP artai
Ġmer aih
Ġker as
eng aruh
ul us
Ġ200 4
Ġawal nya
c o
t y
Ġmes in
Ġse dikit
Ġpengh argaan
Ġmagn itudo
o lak
gan ti
da ya
or n
ĠâĢ Ļ
Ġtert entu
p e
Ġpro duk
Ġm et
ti m
r ik
ĠE l
ĠM o
Ġdep an
ia la
uk uran
Ġpert amanya
ĠK an
ĠN o
ak it
Ġh ampir
Ġk as
on d
ed ung
Ġsesu ai
Ġc erita
Ġter s
d ana
Ġdi j
Ġind ustri
Ġmel iputi
Ġser angan
Ġdim ana
Ġad anya
utus an
at e
ju al
A l
al ik
il ang
Ġ ingin
s h
ĠJ ohn
Ġmil ik
Ġp ri
umum kan
on e
entri sitas
r al
im ana
ĠP ulau
end eral
ĠUn tuk
ri p
Ġber upa
Ġberk embang
Ġ2 2
ĠP al
ĠAl lah
j ek
at unya
up aya
Ġmutlak nya
ti c
di al
ar n
ĠM in
Ġmasa lah
Ã ¡
is h
lan dia
Ġ ef
Ġla p
ĠM usi
Ġse g
Ġt angan
Ġsela lu
Ġk at
Ġsem akin
Ġm obil
ĠA S
Ġpec ahan
ĠBar u
ĠI b
ĠK h
pat i
r im
er asi
y ol
anjut nya
Ġkar akter
Ġ angk
Ġ usia
it e
Ġkeku atan
ul kan
Ġ ik
Ġperj alan
o di
ĠN egara
Ġ2 3
ĠC o
Ġdem ikian
Ġsp ons
Ġmod ern
v id
Ġpem impin
ĠS er
r ah
ĠKar ena
Ġ201 8
ĠM uh
ati onal
Ġm ata
it am
ĠAustr alia
U n
ĠAg ung
um ur
on o
ĠT an
un a
Ġ2 1
ĠP h
Ġs isi
Ġmen dirikan
is ode
s ur
ĠS umat
Ġmeng k
ur ahan
end er
Ġc a
Ġr endah
Ġdari pada
imp inan
ĠKat olik
v ia
as e
p en
Ġdib eri
ĠS al
e um
ĠS w
i z
ĠW il
Ġm ew
ĠA ward
Ġp ekerja
ong an
Ġker ja
m ent
pan yol
fr ika
utus kan
Ġdik etahui
ga imana
ĠR e
en ti
ĠS y
Ġs tudi
Ġdi si
Ġ å
ah li
ĠU m
Ġr uang
i o
ĠS el
Ġm eter
ant or
Ġpem ba
os t
utradara i
os a
as s
Ġmen e
Ġn a
Ġf orm
Ġke ber
tu m
ut er
ip takan
am at
u di
or dial
un da
Å į
ĠAs teroid
Ġbelak ang
ĠK etika
N I
Ġr adi
Ġprim ordial
Ġt entara
1 1
Ġpro f
Ġtuj uan
Ġber w
Ġisti lah
or itas
ĠS an
s ek
oc k
Ġb intang
M en
usk up
angk ap
amb ar
Ġ ib
Ġber si
ĠK el
Ġ $
etisi mal
Ġplan etisimal
il ip
ĠK ed
ok o
tur unan
ĠEks entrisitas
Ġ20 00
emu an
Ġm ur
Ġl i
ĠG o
Ġkeku asaan
ĠDe wan
Ġ is
ut h
ro s
p h
ĠK u
e wan
Ġper ubahan
ĠK emudian
ak sa
Ġberikut nya
ug as
ĠMen urut
Ġpen eli
g angan
or o
amb arkan
ĠD r
ri c
v isi
isti wa
Ġper mainan
amp uan
or t
Ġbela jar
Ġin s
Ġku at
um an
ĠS panyol
int angi
Ġberl angsung
ĠA frika
Ġas li
erb angan
Ġ201 9
d eka
Ġmeninggal kan
it h
ĠR a
as h
k o
ĠM ak
Ġ1 00
Ġh utan
am e
anjut kan
Ġsa ya
Ġv ideo
ĠT el
Ġber tu
u ga
wa b
Ġseri al
un tu
amb ah
ĠN a
ĠA ran
ov iet
b o
Ġs urat
ĠM ad
Ġmemil ih
Ġ em
ĠD ari
am en
5 0
u anya
at er
Ġdi adakan
Ġel ek
Ġk ini
Ġmen dukung
Ġmem utuskan
h kan
Ġlingk ungan
y sia
la p
Ġg ereja
ot al
Ġp at
h ar
eg ori
e di
do k
ahan an
ĠSumat ra
ra el
ĠL u
ĠP iala
Ġdip impin
Ġper gi
Ġla ki
ĠR o
" ),
b ak
ĠRom awi
at angan
Ġdiper k
Ġperjalan an
S a
uk ses
Ġd aya
l ukan
ĠMuh am
Ġb is
l or
g o
Ġt ua
u angan
Ġja batan
im ia
yak it
Ġt ampil
Ġ arah
atu an
Ġber akhir
in o
il ia
lak i
ib atkan
ask ah
ĠS oviet
Ġpenggun aan
c eae
Ġme dia
Ġd ata
ĠAn d
Ġut amanya
Ġtradisi onal
Ġc epat
" ).
ub ern
ist ik
Ġber isi
Ġpemb angunan
egi tu
ĠG u
ĠG en
ĠA da
eg ang
Ġ2 6
Ġke turunan
er si
min istr
ur us
Ġn ilai
l uk
ĠT ur
ahu di
en angan
Ġmenga k
an di
ĠâĢ Ķ
a u
Ġb uk
Ġs al
ub ung
Ġda ftar
Ġmem bangun
ak up
Ġa lat
ir ip
Ġ im
ĠD in
ĠIn d
k ota
P R
Ġd ew
Ġput ri
ant o
elu arkan
ĠMala ysia
Ġ2 7
Ġak tif
ki tab
Ġkem atian
ĠM esi
Ġd rama
t s
Ġen am
Ġber per
i e
Ġp artai
ĠK ong
eh atan
amb ahan
ĠM eskipun
Ġp ember
da h
Ġt angga
Ġ !
Ġ oksi
Ġb eb
Ġs empat
ĠT r
Ġm alam
Ġ200 3
ĠB at
ĠIs rael
ĠT V
m u
Ġpeny anyi
l er
k ar
C h
Ġte pat
Ġdip roduksi
Ġin formasi
Ġlok al
da lam
ĠSe bagai
Ġs ah
ula uan
an s
ĠY ahudi
Ġp indah
asis wa
tr ak
ar am
b el
Ġm ul
Ġmenc ari
Ġdi ta
ĠP emb
Ġdis utradarai
le y
p i
ĠH ong
ar u
ĠK ap
ia ya
elenggara kan
Ġj atuh
r asi
p ura
Ġr akyat
Ġdip akai
tiv itas
es tiv
A S
Ġl em
amp ilan
Ġterp ilih
ĠSM A
Ġkak i
at in
Ġ2 8
al on
ba gi
ĠS k
it al
ĠA t
Ġmemper oleh
Ġmemb eri
ah aya
Ġw arna
up er
il angan
ev olusi
Ġp utih
Ġt ah
am es
ĠH e
Ġ ikut
Ġ uj
ĠII I
estiv al
ogra fi
an dia
tr on
Ġm antan
ĠI l
j ang
ubern ur
bur g
ani an
ĠMesi r
Ġ uang
ĠB e
Ġber at
os p
Ġpen j
ta di
Ġde but
Ġn omor
Ġber diri
Ġp antai
up iter
Ġter baik
at atan
R I
ger ak
er gi
bu s
Ġkem ampuan
ĠKa isar
ĠU dara
ĠS ultan
anding kan
d us
Ġk amp
eng ahan
ĠB andung
w ar
i kan
Ġbert emu
Ġayah nya
tu al
ot or
Ġberw arna
ol i
tr ik
tap kan
il ik
enar nya
Ġmod el
Ġmen ampilkan
Ġt ugas
Ġperk embangan
Ġ19 0
ĠY ork
anj ung
Ġl og
ĠL iga
Ġk o
ĠDa erah
ĠD ep
unc ak
ĠN or
but an
Ġf isi
ij akan
Ġtekn ologi
Ġga ya
I a
ĠM on
n egara
Ġb ek
ĠY o
Ġpop uler
enda li
ast ra
Ġdib entuk
Ġ200 2
ak u
ĠKep ala
Ġb antu
r en
Ġpen erbangan
Ġef ek
in s
ĠC ar
Ġber g
ik at
et ik
ingk atan
si r
ĠM ela
ĠSem entara
b on
Ġpas ar
Ġant aranya
ov el
Ġka um
e dia
ti h
an akan
om o
ba di
Ġmeng gantikan
ĠE d
Ġ ahli
ĠH a
Ġt a
Ġke ter
o a
ĠB ahasa
Ġmenc akup
Ġs akit
at h
Ġlok asi
la wan
en n
Ġkas us
r ata
ak ul
Ġs ana
Ġla ba
B er
Ġep isode
or ong
ra ga
Ġmem inta
Ġ200 1
ĠY ang
Ġp in
uk ul
ĠG unung
y s
art emen
Ã ¼
yang kan
ĠPem erintah
ĠPer s
Ġsitu s
Ġsen jata
Ġper h
Ġjar ak
ĠK eka
m er
Ġn on
Ġpen yakit
o ol
Ġ )
ĠD ir
19 9
ur usan
o od
om inasi
3 0
Ġk am
ela pan
Ġi kan
Ġs is
Ġtert inggi
Ġm udah
ĠP T
bu atan
Ġpen uh
t en
ĠIn ternasional
ri bu
ĠPang eran
ĠH er
ama an
di r
ungk inan
titu si
Ġsekali gus
at uran
es us
ama i
da gangan
Ġo perasi
ba ya
Ġkon disi
ic e
il iki
j em
al u
si t
ĠPen didikan
se orang
Ġh ewan
Ġb egitu
Ġm on
f ik
ensi s
Ġp ublik
P en
Ġber d
Ġh adi
ĠP or
ga la
g anya
Ġmer ah
Ġmen olak
l d
Ġmen arik
ĠTer baik
Ġpan as
Ġ5 0
Ġm ati
ĠKe tua
ga k
las an
di akan
Ġ199 9
Ġia lah
v i
Ġs ar
er ang
t is
Ġg aris
Ġmeningkat kan
h al
u al
ir ing
Ġpert anian
ĠA si
ac am
ĠRom a
Ġger akan
Ġd uk
ĠP at
Ġc ontoh
Ġ usaha
ic k
Ġmen empat
eles aikan
ĠÂ ²
Ġ et
Ġt otal
la si
akul tas
Ġ ulang
et ah
Ġbantu an
S M
ĠS te
e z
ĠIn tern
ab i
han c
ĠP an
ĠJ alan
ch i
Ġke adaan
Ġdi angkat
Ġh id
ĠL on
Ġ on
un dang
Ġtan aman
Ġb unga
asil itas
Ġmem akan
ungk inkan
ĠL agu
ĠC om
ĠKeka isaran
ara p
Ġdew asa
uru f
Ġf inal
d er
ĠH in
ka it
tadi on
4 8
Ġterl ihat
ung gal
aman an
b or
el ola
ĠP e
Ġk uno
ĠPer j
om at
Ġt ulis
Ġpert empuran
ĠY upiter
unc urkan
Ġf or
ĠMuham mad
Ġpem ilihan
ĠB i
ĠT a
b ahasa
ĠE m
Ġan ti
Ġpop ulasi
Ġmenga lahkan
ĠA li
tr at
ĠKal im
u ali
Ġ id
elas kan
s atunya
Ġbar ang
lah raga
Ġseb enarnya
ĠAl kitab
ot h
ne y
L aba
ap un
si p
Ġr ata
Ġa gr
Ġked uanya
ya m
and angan
ari kan
aja lah
Ġ am
uh i
se dia
y n
Ġun it
ĠAran eae
Ġpro yek
si kan
Ġs truktur
daya an
ĠS ed
P ro
Ġpen diri
il ing
ĠW ak
li bat
le x
ĠIn s
an ti
Ġdi ambil
ĠM aj
Ġfam ilia
lu as
or ld
ena ga
et h
Ġw isata
Ġpr ia
Ġmenyer ang
Ġber usaha
v es
ĠB udd
Ġn ovel
Ġp ot
Ġper istiwa
Ġmeng embangkan
ĠD is
Ġ199 0
enal kan
Ġba bak
ur uan
yak arta
ĠK o
il la
Ġt o
Ġf ungsi
Ġ2 9
ent eng
itu r
og yakarta
kan an
Ġpeng embangan
ĠH o
Ġpr esiden
Ġg ol
Ġpeneli tian
ĠK em
Ġmer ilis
ĠB ad
ĠJ enderal
erik ut
Ġper ingkat
ĠK eb
at al
ĠH an
ir akan
ep as
lam an
Ġberj alan
Ġh itam
Ġber f
Ġr asa
Ġla yanan
ik ahan
la y
ĠAc eh
ĠSin ga
l ob
ĠS ula
Ġseg era
Ġkh as
Ġmengi rim
h ana
u e
jadi kan
ĠGe or
m ar
Ġg uru
ĠB ali
Ġse ba
ĠB ur
F A
Ġg e
da k
ud ukan
ja ya
Ġbis nis
ak tor
Ġd ar
er deka
ri d
ĠKalim antan
Ġpeng g
Ġad ministr
ĠLon don
Ġse seorang
om ba
engaruh i
inya k
Ġdib intangi
Ġmel anjutkan
Ġk imia
Ġmenga ku
Ġt ampak
Ġsa udara
Ġob jek
ump ang
u f
A r
Ġter kait
Ġmer asa
lik asi
la lu
ĠSe jak
Ġg el
Ġter libat
Ġb enar
ab at
ĠF ran
Ġd ag
Ġp ohon
Ġti ba
Ġ4 0
t es
Ġmeng ubah
l et
Ġke per
Ġberb entuk
s er
ĠB u
Ġju ara
ia u
Ġmenc oba
y r
j ukan
ĠS eri
ĠA h
ali f
inda kan
Ġka bupaten
ed an
Ġmem ungkinkan
Ġdik embangkan
Ġdi f
ĠB en
Ġmemb er
Ġkem ungkinan
ĠA di
Ġ gi
ĠY ogyakarta
Ġmem impin
Ġmeng umumkan
Ġl embaga
Ġg ambar
Ġmis alnya
Ġl istrik
ja d
Ġ18 8
d ari
uskup an
ĠSeb elum
Ġmengh adap
etah uan
Ġper angkat
ik el
ela k
Ġdi jadikan
op i
ant ik
lahir kan
ta in
ĠAl bum
Ġper lu
ja u
v en
Ġmemper t
erah kan
Ġsel anjutnya
h argaan
li am
ĠB esar
Ġn amanya
Ġp ra
Ġte ori
butu hkan
Ġt itik
ol d
ĠC on
el la
Ġoksi gen
Ġt eman
ok us
Ġke ka
Ġk en
Ġber usia
ont on
b ah
Ġmemb unuh
Ġk end
Ġpas angan
s ter
es ai
Ġ Ã
an ia
ing gian
Ġr ef
Ġm irip
Ġga gal
k er
Ġpeng aruh
ong ia
Ġtum buh
Ġb el
tu ju
Ġda un
ĠM et
ĠP ar
ĠPerj anjian
Ġ nya
Ġb r
i cara
Ġba dan
ĠP usat
Ġl eg
j uan
ĠF ilip
ĠT ak
ag am
Ġper dagangan
Ġj elas
ĠY esus
j am
aks ud
Ġmer ek
Ġprof esi
ĠP ak
unj ukan
as ia
Ġb elas
Ġst atus
uc i
j ari
Ġpert engahan
ĠP ut
enc e
Ġkomp uter
uasa i
esi f
osi s
Ġt emp
ĠT ekn
ahan kan
T er
Ġpeng uasa
ĠK am
Ġ _
ak i
erdeka an
l es
s ch
Ġpenggun a
eda an
Ġd ah
O r
arl emen
Ġkem enangan
Ġbert ahan
s y
Ġsela in
ura baya
Ġ198 0
e but
Ġ umat
Ġk ulit
ĠSe lama
is ahkan
Ġmenc iptakan
ĠUm um
Ġkeb ijakan
em at
ĠC l
ĠC ity
ĠI m
uh nya
Ġt ur
Ġdi ak
ti a
ĠKed ua
ĠR akyat
epat an
Ġen ergi
Ġper p
Ġpen dapat
Men urut
st ra
s el
Ġsing el
Ġun i
ar m
te in
bu dayaan
Ġd arah
Ġdib andingkan
12 4
ĠAb dul
Ġ199 8
Ġr ela
j arah
ĠT inggi
t in
Ã ³
Ġist ri
tida e
ho a
e an
u ta
Ġt ip
Ġin ter
do w
bu ran
p un
Ġter n
eg un
Ġ y
Ġkon sep
l us
Ġdim iliki
ĠT NI
ĠC or
Ġju dul
ĠG er
Ġkhusus nya
Ġk antor
2 5
w ang
ir u
ĠT enggara
Ä ģ
el is
Ġ op
ok asi
Ġbeb as
Ġber sa
Ġm isi
s al
Ġkes ehatan
Ġpri badi
Ġg edung
w esi
Ġ18 9
n am
h am
ĠB ro
Ġt ambahan
ip ta
l um
ong hoa
g ang
ĠS tasiun
Ġbersi fat
and an
ot el
tr ol
Ġun sur
S ela
Ġ æ
Ġr ep
ĠD en
Ġberb asis
Ġt unggal
ĠM es
us a
ĠG a
el ompok
Ġmeng andung
s us
ĠM ich
ra g
ĠMus lim
anj ar
er us
Ġb enda
un yi
z im
Ġh uruf
Ġsi fat
Ġberper an
la im
ĠKep ulauan
Ġka la
al ih
ĠÂ °
Ġke empat
ĠOr ang
ir o
Ġradi o
6 0
am akan
S I
ĠS um
Ġelek tron
uj ud
Ġ upaya
Ġs ukses
is tan
p ro
ĠP et
g ia
ĠS urabaya
Ġber gerak
Ġ ?
D esa
Ġm inyak
Ġtuj uh
ar y
u at
Ġad at
ang at
angk aian
ĠF r
al e
Ġket inggian
eng ar
Ġp ar
ĠH am
Ġp ad
Ġmem buka
Ġk ul
l ing
Ġst andar
il us
it ra
osp ongia
Ġak tor
Ġas am
egun ungan
ĠK i
Ġsel esai
upa cara
n er
Ġkons er
Ġg unung
Ġbur ung
y p
ĠP ur
ab is
Ġdita yangkan
r esi
ĠW in
ĠS ri
tr is
akai an
o f
ĠL in
uj an
Ġ u
empat an
Ġpern ikahan
ĠK ol
ĠO n
ĠW orld
ĠDin asti
ĠK ons
Ġper c
Ġdiba gi
Ġkep em
ain kan
Ã ¶
ab el
Ġpro dus
ti han
ĠKan ada
Ġn askah
ĠSinga pura
Ġdip ilih
Ġser angga
4 0
ah a
Ġan im
K I
Ġkomp etisi
Ġpr ak
j ana
Ġkal angan
tu p
Ġc er
ĠM il
Ġduk ungan
Ġp lat
om a
19 8
Ġter lalu
e lam
ĠSula wesi
Ġm ajalah
ita b
Ġt urun
c an
ĠD PR
Ġter sedia
ĠN e
es ter
ĠT idak
m at
ĠL atin
Ġg as
up ati
Ġf r
Ġmengg ambarkan
ĠPol andia
Ġin di
a f
ek tor
Ġh ati
Ġmeng ur
ĠTi onghoa
ĠSa lah
l eks
Ġter buka
r as
em ent
Ġ lahan
on y
Ġja wab
it ung
ĠUn it
j ur
ab rik
Ġmew ak
en i
lak u
por kan
ĠWil liam
Ġdis elenggarakan
y ani
Ġna ik
Ġpes erta
us ak
ek u
ĠP ela
. ,
Ġmenye diakan
A R
Ġkon f
Ġkomun itas
eja bat
ĠM is
and atangan
ul ar
Ġmem ainkan
ĠM c
Ġwa la
Ġper se
urn amen
ĠPa us
Ġ3 1
int ah
T V
es e
Ġt r
Ġf asilitas
ig ht
tida k
ok rat
ip il
Ġter bang
ospongia e
ĠDem ospongiae
uj i
Ġkend araan
er j
an y
Ġmeny elesaikan
Ġn eg
v asi
uj uk
ĠW ilayah
Ġca bang
Ġka dang
er o
engk ap
ri ch
Ġtekn ik
Ġdi buka
Ġem as
ĠSed angkan
ĠG ro
ĠS D
ant ara
Ġ upacara
ir us
alan kan
Ġm ay
Ġpen umpang
Ġs at
Ġp ukul
K e
ĠPeng hargaan
us ul
Ġdis trik
Ġper dana
ĠFilip ina
d ar
ĠJ ac
bang kan
Ġt indakan
Ġp emu
Ġkeb anyakan
P em
tif ikasi
Ġt eks
gan isasi
wak ilan
Ġmewak ili
Ġmah asiswa
Ġp a
Ġs ur
Ġmenj al
an do
ĠS ing
gr asi
Ġperj anjian
butu han
y anya
om bang
ĠT ai
Ġter d
ĠE x
Ġkal inya
tr e
Sela in
Ġe disi
Ġmen it
Ġ199 7
ĠH en
Ġin f
Ġmenyer ap
ar g
ac eae
uh u
Ġ ide
ĠE k
ultan an
ĠSe buah
en ter
in isi
ĠTur ki
on takan
um b
ĠSM P
ek tar
ribu si
Ġpekerja an
Ġp u
ĠS c
ĠP i
ĠPor tu
o x
A gr
l ar
Ġc atatan
r am
it is
Ġ ata
ir im
ĠT ro
ara pan
ku at
end uduk
B erikut
ĠHin dia
Ġ197 0
Ġ18 7
ĠW al
g uruan
el d
, "
Ġmenjadi kan
j ib
amb ahkan
k adang
Ġdilak san
Ġs ik
Ġkor ban
Ġist ana
ĠS tudi
Ġa lasan
n y
was ta
ĠP aris
Ġdi ikuti
Ġmeng adakan
do p
2 1
Ġal iran
Ġp uncak
el ang
ĠG ubernur
Ġper l
ĠN omor
Ġberb atasan
Ġr encana
Ġkat egori
ik ir
Ġb iaya
ĠB angsa
Ġpet ani
Ġdilaksan akan
ya wa
a z
ĠF akultas
ĠF estival
us e
hanc urkan
Ġb ak
aya an
el it
Ġp eda
Ġmem akai
Ġmet ode
ĠK omp
Agr ilus
ĠB ank
Ġin t
Ġ +
Ġk isah
ĠB umi
Ġas ing
m o
Ø §
Ġdi la
ar ak
Ġke butuhan
A M
um a
ti ga
unj ung
Ġm inggu
Ġberp en
ĠUni versi
Ġter bagi
Ġo lahraga
Ġpem buatan
ra d
Ġib unya
Ġrek aman
ir e
Ġmas jid
u el
emb atan
Ġmenj elaskan
Ġsem i
Ġt anda
Ã Ń
Ġdesa in
a iran
ju araan
am bang
Ġmana j
Ġber c
Ġmeng etahui
ĠS ang
ĠR atu
lahir an
Ġ jadi
Ġkel urahan
engk api
Ġ es
an ye
Ġob at
u ara
l ok
Ġ era
Ġditer ima
u te
ĠK ur
Ġak tivitas
Ġl ulus
Ġata upun
ran i
ĠPert ama
ĠAustr ia
ju alan
Ġt enaga
ĠBudd ha
es u
erita kan
Ġprofesi onal
2 4
h ari
Ġr em
Ġpeng etahuan
Ġsis wa
i v
emb ilan
Ġs aling
ud e
2 3
Ġmemas uki
Ġmeng eluarkan
c om
ew at
ĠS im
t ahun
Ġin tern
Ġb us
olog is
Ġs astra
ĠAward s
d ilan
ĠU S
ĠH ol
Ġdi gantikan
ĠM aria
h at
Ġ ukuran
Ġmempert ahankan
Ġse gala
eda kan
ĠT uhan
Ġant ar
Ġh ujan
ĠP ap
Ġ196 0
el an
ĠB anjar
ing g
lob al
ump ulan
Ġdah ulu
jadi an
Ġs pesi
Ġter j
ĠS un
ada h
Ġc amp
ana an
ik iran
Ġmemper k
Ġmur id
Ġg ug
Ġper caya
Ġ199 6
emb ak
ak ah
Ġset empat
yata an
ĠP ark
p ek
ch e
ed ator
Ġte was
uduk i
ĠMela yu
Ġagr esif
A T
Ġber ita
Ġse lam
Ġkita b
r us
ind ungi
ĠJ ika
Ġd om
er hana
Ġkeh ilangan
Ġse s
Ġt ahu
sip asi
int as
at asi
P eng
c u
ĠT ok
Ġv ok
uk ai
ĠWak il
ubung kan
ind u
Ġp impinan
ent al
Ġmeng anggap
unj ungi
Ġs trat
ala upun
osi asi
ant aranya
ĠSe bagian
and er
ĠZ h
Ġb atas
ig h
en akan
on is
ĠP ri
Ġmenc etak
Ġd at
angg il
e e
at nya
Ġs us
ĠA lex
ĠIntern ational
indah kan
Ġkep utusan
Ġ194 5
B eberapa
tum buhan
aris an
Ġa b
Ġ( ;
ĠIns titu
at o
Ġsal uran
Ġber umur
Ġpers en
K ar
Un tuk
emb ah
Ġmen ang
Ġ199 5
as inya
ĠPro gram
en e
Ġkon trak
ĠT ra
ut ar
A da
alam an
ef inisi
emu a
Ġb ila
ĠM i
ela jari
m y
Ġpr edator
ia de
Ġdik a
p u
ĠD ua
ĠT rans
Ġkomun ikasi
fa atkan
ĠCh arl
ĠK emen
f ilm
ĠJ ames
Ġk ode
Ġde wa
us kan
B C
en tikan
Ġterb atas
Ġkr itik
Ġdise babkan
n o
Ġindi vid
Ġmer ujuk
Ġmenghadap i
ĠKom un
un ing
Ġber operasi
am u
Ġter tu
Ġmat eri
on en
ula t
e idae
ĠW ar
A m
ĠB al
os k
ĠM ay
Ġd elapan
imp iade
Ġgen erasi
uk ur
Ġter m
Ġm ili
eg al
Ġkec epatan
or is
truk si
Ġmeng in
Ġperb edaan
ĠF or
Ġkep ad
Ġmen entukan
ĠC omp
ĠCh r
ĠH ari
Ġ angka
Ġberj umlah
Ġb e
aw at
ĠPert empuran
Ġp uluh
Ġperb atasan
Ġ199 4
2 2
ĠMar k
Ġk ot
Ġdite tapkan
andatangan i
ĠT aman
Ġc inta
Ġkem erdekaan
Ġc m
Ġin st
Ġdif usi
Ġbu atan
Ġo per
Ġberk ata
Ġpenduduk nya
ĠSe cara
j en
or y
tur ut
Ġdiperk irakan
ĠUniversi ty
Ġwala upun
Ġk os
ĠR I
r ak
Ġpen ja
Ġuj ung
ep h
Ġm ol
Ġtulis an
w in
ta f
Ġt api
insi p
Ġr eg
Ġs ulit
ĠG re
Ġa dik
Ġ199 2
Ġmakan annya
Ġba gaimana
Ġdi antaranya
Ġka bar
eg ah
Ġp o
ir asi
Ġkol oni
Ġmem ang
ĠR ober
Ġ195 0
Ġbek as
la in
ĠR ad
Ġp ejabat
al ang
Ġ( ,
Ġpert emuan
ĠS ar
Ġmemen uhi
Ġ" .
Ġmeng ing
Ġpen dukung
ĠB and
w ira
ĠE r
Ġc alon
Ġmela yani
tap i
ĠI bu
udd in
Ġp ed
Ġpen ampilan
ali sis
j il
Ġl ewat
k h
Ġba la
ĠS uk
B B
Ġdik irim
m ada
Ġl ar
Ġmem egang
ĠI V
ari asi
iet nam
Ġar sit
ĠB anyak
g n
Ġberp ori
bul kan
ba u
fer ensi
ĠU r
el iling
ber g
Ġfisi k
ĠP on
ĠC ina
Ġre aksi
ĠR umah
Ġr am
Ġput r
ha il
ĠEn ter
ĠG ar
Ġl engkap
Ġdik ar
um e
S eb
angk ah
Ġ6 0
ĠW i
Ġap likasi
Ġt urnamen
al em
Ġh arga
Ġd r
os h
ĠDi visi
Ġm o
wa y
ĠO s
Ġc ahaya
urut an
N A
e j
A stra
ĠC ir
Ġwak il
om un
Ġke tua
om eter
ĠY ou
ĠOl eh
Ġdip as
Ġmemp roduksi
Ġinst ing
em i
Ġw eb
k in
ĠK itab
ĠE ur
Ġk ampung
ĠP o
f an
la sik
Ġp osi
gal us
o kan
Ġbertu gas
Astra galus
Ġkes empatan
Ġuni versitas
Ġberf ungsi
itu s
Ġmembuat nya
Ġmen engah
Ġangk atan
K eb
Ġmel ew
Ġ199 1
ĠPer dana
2 7
Ġdok umen
ĠAsi l
Ġterp isah
un isi
19 7
Ġlog am
adem i
ĠC a
ow n
ga wa
ĠR i
ĠF I
operasi kan
Ġh ilang
S ek
ri g
ĠM ana
ĠM ag
il u
ĠAsil idae
Ġs utradara
Ġperh atian
om as
imb ol
ati kan
ĠM el
ĠB ay
ĠA z
Ġpr es
Ġpin tu
Ġberh ubungan
Ġkomp leks
Ġpen jualan
ĠU s
ĠM or
Ġj asa
ob atan
d in
ĠJ aya
ump ulkan
Ġdil ihat
Ġp abrik
Ġsed erhana
ĠM ari
ung gu
caya an
Ġbuk ti
Ġlap angan
Ġs uhu
ĠB ul
Ġkur si
ep t
v al
Ġn o
Ġc h
dop si
Ġtern yata
Ġdi al
Ġs ipil
lam atkan
Ġ199 3
ĠV ietnam
Ġb en
Ġk il
Ġl ebar
angsa an
Ġme lam
ac e
Ġberb ahasa
ol e
Ġpol isi
ĠAk hir
Ġmili ar
f e
Ġber la
es h
ĠI st
inda k
s o
Ġb akar
il le
m ark
inta an
esi sir
F ilm
Ġr ah
ĠP adang
Ġke la
j ian
eb asan
istr inya
ara wan
anj i
n g
Sa at
T I
unt ungan
c ar
w e
ĠS at
Ġsamp ing
ranc ang
Ġdih asilkan
ter ian
.. .
Ġkec uali
Ġmengur angi
2 6
Ġa jaran
ĠIl mu
ur ang
ĠS tar
ĠPer usahaan
Ġdi tan
ĠSem arang
ĠP ra
tain ment
Ġse butan
Ġdit empat
Ġt op
8 0
Ġh ar
Ġdi rancang
Ġ istrinya
ĠT ip
ĠPro f
us h
ĠBr asil
Ġsaya p
ec t
Ġdiba wa
Ġmel ibatkan
por an
ba ikan
ĠB uk
Ġdisebut kan
T A
ersi al
Ġtah ap
ti lah
Ġmas sa
ĠBad an
Ġstudi o
ĠA f
Ġberk eb
st em
arti sipasi
Ġ ç
ov e
Ġpemb entukan
Ġp ah
om e
Ġm m
Ġpem enang
end era
k apai
yan yi
am il
Ġte kanan
on el
Ġ" (
Ġ18 6
Ġberh enti
Ġar ea
Ġmelew ati
3 5
I N
Ġka lah
ĠA ri
Ġdil uncurkan
; ,
Ġmen da
ĠD o
p s
ĠS uci
ok i
Ġdi am
oph yl
han n
ic a
ĠAc adem
Ġber n
ĠH ukum
Ġter buat
Ġp engan
ĠM ur
re di
Ġv an
ĠB andar
jur it
em ar
Ġri bu
es ta
Ġr ump
Ġkeluar ganya
ĠS atu
m on
Ġdi an
S en
a el
Ġs ini
Ġs up
ĠDa vid
Ġmen urun
j at
ĠM ac
m ur
Ġmeng uasai
ĠOl impiade
Ġ Î
ĠSw edia
ĠMus eum
Ġart inya
Ġak si
as itas
ĠTan ah
Ġl un
Ġmus uh
B ul
it asi
orn ia
Ġs o
Ġak tris
D engan
b in
Ġla yar
Ġ er
y on
il d
y al
Ġposi tif
Ġn uk
ĠMas jid
Ġdig ital
Ġp andangan
ĠS ir
ek or
f is
N ama
alif ornia
ret aris
b ila
olong an
Ġmeny imp
it t
ali b
ĠT anjung
en ia
Ġpen ingkatan
g ar
Ġm acam
Ġg ra
Ġter si
Ġkont es
ĠS uper
Ġmem an
Ġmenempat i
D a
ĠS ab
ĠT ang
ĠG i
ĠPer sia
es an
uk is
ĠD ar
Ġdag ing
ks anakan
S h
Se jak
ing ton
ĠJ a
oc i
hail and
ju angan
ĠUnit ed
Ġs h
ĠBa gian
ĠV en
ĠD arat
ĠAp ol
m ani
urn al
Ġmenja ga
Ġd ingin
Ġmend orong
Ġkarier nya
Ġa jang
Ġpert unjukan
ĠCh amp
ali an
ĠB ang
ĠH indu
por tasi
Ġpot ensi
Ġke lahiran
Ġberk a
Ġsing le
Ġka isar
ing atan
Ù Ħ
ĠKr is
Ġsk or
y li
4 5
Ġkonf lik
Ġk anan
Ġk iri
Ġmen teri
ĠR ich
orm asi
Ġmenyebut kan
yang an
Ġs ul
ang it
ind ing
Ġpember ontakan
ap ak
Ġat om
Ġdik atakan
C ol
Ġter tua
ĠAcadem y
t ra
ep end
P S
Ġmen aw
emp uh
eg an
b y
3 7
ĠF C
ch a
n an
Ġke uangan
os o
ĠB as
Ġkom ersial
ĠEnter tainment
Ġmengak ibatkan
Ġf itur
ĠAdi pati
Ġmen im
2 9
ĠSch ool
Ġal ih
Ġdiper lukan
Ġindivid u
ĠF ed
Ġmer ebut
ĠIr landia
Ġhi jau
ĠMusi c
Ġpen onton
it s
Ġsen yawa
ak h
m b
Ġmend uduki
l en
v ensi
Ġberkeb angsaan
; /
Ġ ang
I s
Ġmemb eli
Ġdil engkapi
ow er
at ori
Ġpert ahanan
Ġke amanan
ĠU k
Ġkom edi
ak e
sk up
in us
ub ang
Ġper tumbuhan
ĠPen ga
ĠS unda
Ġd er
Ġmel arikan
ĠDep artemen
la ck
; .
Ġseh ari
yar at
ĠB upati
Ġpem ilik
ĠPa ul
Ġdi ubah
Ġp anggung
ĠT o
g is
Ġ198 9
r u
Ġset engah
il e
ĠPap ua
Ġapa bila
ĠC alifornia
ĠIb rani
lawan an
et an
ĠR as
p on
Ġ8 0
ĠK im
ĠTro ya
Ġrela tif
Ġmem butuhkan
Ġ" ,
ju ang
ĠL ib
Ġh alaman
ug h
ophyl lum
ĠTe tapi
z e
es erta
ĠM eng
ĠT hailand
Ġs wasta
qu e
ji kan
h y
Ġdi umumkan
ta i
p ur
ĠCh ina
Ġmem er
eg is
ĠB an
Ġl anjut
ang a
ĠRober t
Ġart is
e us
Ġbert anggung
Ġmemp elajari
Ġdi jual
2 8
ĠPas ukan
n u
re f
aj ak
P P
w akan
ag us
Ġkeper cayaan
Ġseba gaimana
orm atan
ĠAng g
Ġpela buhan
p o
Ġseni or
Ġm it
Ġmener bitkan
Ġ3 5
und ur
ĠGeor ge
sy ch
ber t
ĠB omb
K ota
m us
ĠV al
Ġbersama an
w ood
ĠF er
erint ahan
Ġf ik
Ġmela ksanakan
ĠL ou
à ¤
sa an
ĠCharl es
ak am
ot t
ĠV er
Ġsah am
Ġp os
ĠR ec
Ġhidup nya
Ġt aman
ak aan
Ġdok ter
Ġtip e
y atakan
Ġ urutan
Ġber ukuran
ĠM yc
Ġper intah
Ġsem inggu
l ima
ĠKemen terian
Ġmeng atur
ĠM ul
Ġmenj alankan
B S
ĠHong aria
Ġt ema
ĠD usun
Ġmenga jar
ang eran
ho u
d ur
ĠKes ultanan
Ġmenaw arkan
Ġber laku
et ron
ĠE p
ĠP eter
ĠT om
Ġ ,
uk isan
ent asi
Ġke budayaan
uti f
ĠR os
ew i
ud ut
C are
ĠL o
angg ota
Ġser upa
Ġj angka
as hi
Ġf oto
abis kan
om an
Ġmem erintah
amp ai
ĠM iss
Ġs ig
ĠJ alur
ĠSe perti
ĠO t
ĠE s
ĠK en
ĠâĢ ĺ
ab atan
4 7
um si
Bul b
ĠApol lo
K etika
y ur
l l
Bulb ophyllum
Ġma ju
ro gen
Care x
b al
Ġga dis
in k
l ir
ĠU skup
Ġberka itan
Ġsep en
utu p
ol os
ĠQ u
Ġla poran
ala i
Ġpem eran
ĠG ol
eb on
Se bagai
Ġprodus er
Ġa c
yak ini
ĠW alaupun
ĠT or
Ġre gi
r eg
l ine
ĠO b
Ġbur uk
Ġk opi
Ġkak ak
Ġse c
Ġr ingan
i ti
ust akaan
Ġberb icara
Ġs imbol
ek ul
Ġt ari
D ia
Ġp ulang
Ġse bab
T ahun
Ġprak tik
k al
ĠP el
ĠR es
Ġ7 0
Ġdem i
Ġters ebar
o o
Ġhadi r
ug erah
Ġ imp
Ġsat elit
Se cara
el ur
Ġs y
Ġf aktor
erj akan
d u
ĠM od
Ġak ses
sek arang
Ġlun ak
E S
Ġp ilihan
Ġdi dukung
Ġp akaian
ad ar
Ġmeng hancurkan
ĠT entara
dam aian
Ġgel ombang
f ord
ĠM em
Ġdi ma
ĠD el
dow s
ap al
ĠK l
z in
ĠLe e
Ġp egunungan
ĠPut ri
emp a
Ġt urut
ont ak
it kan
Ġsep uluh
Ġt em
h er
ĠS urat
Ġ198 8
Ġkeber adaan
Ġsa ud
Ġj arang
l ih
j uk
Ġp esisir
unisi p
Ġmenim bulkan
Ġd usun
Ġdin yatakan
Ġdan a
y per
ĠB os
ĠM aka
Ġmay oritas
Ġper airan
Ġma u
Ġper wira
Ġmak am
ati annya
ungk apkan
Ġmeng angkat
en am
Ġdig ambarkan
Ġn ominasi
ĠB ol
ep on
Ġdit angkap
ant inya
ĠD asar
Ġr as
emba p
uc ing
Ġtemp ur
ala tan
Ġper si
anj ing
Ġpela yanan
ĠAm eri
D ari
ela p
Ġmenc egah
Ġmengaku i
ud us
Ġr el
ok rasi
Ġmel indungi
z h
z z
am ah
Ġant ena
7 0
E R
a ir
as aran
eb unan
m is
Ġkil ometer
Ġmenjal ani
ĠI ran
ag o
Ġme kan
Ġpela ks
Ġpra jurit
ĠS tadion
b enar
Ġdik eluarkan
rom osi
ĠL ama
ri an
ĠS istem
ind ungan
enc anakan
ĠUn dang
b e
ent ral
m ati
la d
P A
ent ingan
Ġdit unjuk
Ġap akah
jem ahan
Ġmengh ubungkan
Ġku alitas
Ġl embap
ĠD ana
et oph
ay asan
eda k
Ġg anda
Ġcamp uran
c al
M I
s inya
ama d
eb at
Ġ é
Ġd uduk
Ġk an
Ġberpen dapat
l eg
P I
ul unya
Ġdi masuk
v an
Ġalam i
ĠHen ry
gun a
ĠGro up
Ġdi bu
v el
Ġkamp anye
la gu
Ġkek er
Ġke bang
Ġr angka
Ġka ya
ot ong
l inya
ing kan
Ġ198 6
ĠB og
aj i
P sych
ant ren
ark as
Ġmeng unjungi
ut o
ĠL an
Ġt et
ing s
Ġm undur
atori um
Ġr asi
ĠY u
Ġdin amakan
ĠU E
w ati
y aran
tuju i
han es
un uhan
ĠR ah
ĠUt ama
ĠS uku
Ġsar ana
Keb anyakan
Ġd ulu
Ġse luas
ĠR p
ĠChamp i
ĠAn t
Ġpen ya
ag e
ra ja
fi kan
Ġk lasik
Ġr um
Ġ up
elak aan
Ġwa fat
Ġbangsa wan
Ġs am
Ġin ves
ĠW e
Ġke jadian
Ġkomp onen
anc e
emat ika
Ġpeny e
and u
ĠTel uk
Ġm ik
ro k
Ġpes an
Ã ¨
ĠIn jil
anda i
Ġmen jual
Ġn e
ĠT u
Ġdiperk enalkan
Ġp il
ĠC an
6 5
Ġsek tor
Ġ5 00
Ġet nis
Ġmeny anyi
Ġdima inkan
ĠD istrik
ĠTok yo
Ġdiper caya
ak aran
p em
ak atan
Ġla tar
Ġberp artisipasi
ĠG al
as ama
ĠBomb yli
Ġdi sa
ĠS m
e tus
art o
Ġini lah
tab il
Ġ4 5
Ġpel angg
Ġdisi arkan
ev el
am in
ĠC i
ot ria
ĠSe tiap
Ġk ami
it z
ĠAn ak
Ġsekitar nya
ĠG or
ĠF ri
ĠD u
eksi ko
arap kan
on j
ĠAg ama
er ia
ul usan
l ude
ĠKel urahan
Ġg lobal
unisip alitas
erint ahkan
ant as
II I
en ian
ur ah
Ġb enteng
ĠMich ael
Ġ è
Ġak adem
ĠS osial
Psych otria
M ar
d y
ĠT ar
Ġkel ima
ro w
Ġpela jaran
9 0
ĠB l
Ġmem erintahkan
c us
enda k
romosi kan
h asil
el ih
ari o
eda li
u as
ĠAn da
ĠMusi m
ĠSw iss
bum i
f or
Ġk esa
bur u
Ġdiak ui
it o
Ġun ik
B a
w eg
ind ari
Ġdat aran
Ġper guruan
Ġc o
ĠL ap
Ġm or
Ġdi dasarkan
ĠD aya
Ġ198 5
ĠGr and
Ġadministr atif
Ġd el
sa fat
Ġb et
ik e
ol l
ĠK as
ĠFran k
Ġk uning
ni fikan
elu arga
Ġkepem impinan
B angsa
sp irasi
Ġber agam
Ġn ektar
untu t
ĠK ab
ir ik
Ġpenga laman
ĠTai wan
Ġl intas
anj utan
M as
ĠCir ebon
Ġmengh abiskan
Ġr at
ĠB ant
3 3
th a
Ġdim aksud
B ahasa
arn o
Ġt oko
Ġditempat kan
k l
wak tu
Ġtepat nya
ĠAr t
Ġpeny elenggara
Ġsepen uhnya
dir inya
or an
D I
Ġmas kapai
ĠM eksiko
ĠV ic
Ġb esi
Ġ198 7
Ġdi ra
ĠH ak
ĠF o
ind ung
ĠN ur
Ġkala u
Ġs udut
k ata
Ġ9 0
egara an
Ġv ol
Ġmenye lamatkan
ĠAs s
ĠB h
ba i
Ġter in
Ġ198 4
da i
Ġdimasuk kan
am inya
N ya
Ġtrans portasi
B up
unc i
jem ahkan
Ġ18 5
Ġvok al
h ta
Ġd arat
uh ur
Se lama
inc lude
ul ih
Ġak u
ĠKris tus
alik nya
Ġb eserta
Ġdalam nya
ĠN g
Ġsem en
Ġsemu anya
ĠT iga
og en
Ġp arlemen
ĠUt s
Ġter jad
Ġkar bon
ec k
at ar
epend en
ad u
os ok
angan i
ev i
K a
ek utif
Ġ ir
o i
inda han
ĠTer dapat
ĠKom isi
Ġs isa
Ġk uda
ĠA yah
ĠM edan
Ġpeny er
ĠS up
om i
Ġpol en
ĠH el
Ġmeng umpulkan
Ġkep entingan
Ġl arva
ĠY ayasan
Ġ20 20
Ġmem bu
Ġpeda gang
Ġper alatan
p l
on f
A s
Ġb oleh
ol isi
Ġsitu asi
Ġkes ep
ing inan
Ġper wakilan
Ġkul iah
ĠP asi
Ġlap isan
Ġdic iptakan
Ġmus eum
or it
ĠBombyli idae
Ġmengk laim
ĠN ational
4 6
ĠTekn ik
Ġin duk
Ġt ab
Ġmenc atat
ro bi
Ġc ender
Ġpas ti
A k
ĠJ umlah
Ġke untungan
emb ar
omo tif
ĠChampi ons
ĠK elas
Ġr ute
es mi
ĠDem okrat
ĠMal ang
ĠB ahkan
Ġsu ci
Ġter bit
Ġmela inkan
da mp
ĠA tas
Ġmenikah i
ĠB atu
Ġbert elur
ly include
Ġdiper oleh
Ġs ingkat
ĠS anto
Ġmenc eritakan
ila ku
jah atan
ĠS emua
cara ba
angk alan
lasi fikasi
ĠA bu
ĠB ra
Ġrem aja
Ġb iru
ĠL et
Ġmen entang
ĠBer dasarkan
Ġefek tif
ger akan
Ġ aman
ĠR oy
Ġas linya
Ġpemb unuhan
ĠB ab
Ġsek su
Ġkar yanya
ent rasi
v is
ĠKep utusan
ĠAk ademi
3 6
Ġr aya
ĠH asil
Ġfik si
Ġc ok
Ġ Ð
ara i
oc ok
ã ģ
Ġperm intaan
ah ami
ĠN i
ĠS il
3 8
Ġti ap
orm al
ag ama
Ġme lahirkan
Ġek or
Ġs atunya
Ġte pi
Ġmen andatangani
Ġl antai
erus alem
do ks
Ġpu isi
Ġmanaj emen
Ġmeng al
ĠW est
ot landia
bo ard
Ġ198 2
M ic
Ġart ikel
Ġke dalam
ĠJ on
Ġmene tapkan
u x
por t
Ã ¤
Ġl ukisan
Ġla wan
Ġm otor
ĠOr ganisasi
l ang
Ġdi lahirkan
ĠC ap
Ġro ck
ĠK umbang
Ġ â
Ġs embilan
gun aan
ĠRad en
Ġsig nifikan
endali kan
ĠK ali
ĠN ag
Ġdip l
Ġdi visi
ĠA kan
Ġl el
te sis
ĠAr g
ĠKar ya
ir m
esi s
P o
S em
ĠW h
Ġanak nya
arg et
en aran
Ġkec elakaan
Ġcender ung
Ġmen a
ĠAh mad
. )
at on
ĠK aw
Ġputr anya
ĠT ri
ĠS l
ĠWin dows
ĠMaj elis
Ġput aran
m pan
ĠIst ana
Ġku il
ĠM u
Ġang in
ab it
Ġhukum an
tidak nya
Ġt on
ĠS caraba
ĠL os
ar ki
ak ti
Se buah
erik atan
Ġtahun an
ĠP ic
Ġdib unuh
Ġpemu da
Ġarsit ektur
ur e
st ant
ĠC ontoh
omun ikasi
P ara
ĠTh omas
Col eoptera
Ġpen si
anc am
e jar
res tidae
Ġpr insip
Ġdin amai
Ġp am
ada i
ĠEn g
Bup restidae
ĠMyc etoph
Ġt uan
ĠR adi
n es
Ġkem atiannya
Seb elum
Ġ x
ua d
Ġdar atan
Ġd inding
ĠK han
Ġberp engaruh
eh i
R T
ĠPem erintahan
ok ok
buk ti
Ġar ti
Ġterg antung
Ġdiba wah
id er
ĠSam ud
Ġterjad inya
Ġmene kan
Ġt ata
g asan
ĠF lor
ĠFI FA
Ġpat ung
ĠPemb angunan
ĠAkhir nya
Ġs ambil
ob i
ump ul
me wa
wal nya
s in
Ġp sik
Ġmer i
op e
I S
Ġt h
Ġp ola
Ġt amu
angg uan
Ġmol ekul
K umbang
er t
ĠGen us
ĠM ong
ĠSk otlandia
ĠDPR D
S t
ga ja
Ġlam ela
B A
ĠB ill
ĠL ampung
hir i
ur angan
adap an
Ġc iri
D end
en ek
Ġper aturan
eb askan
Ġ ì
ĠScaraba eidae
Ġdip indahkan
Ġt ik
ĠS ong
Ġdit ampilkan
ĠS ub
ĠD on
en angkan
ã ĥ
es or
Ġmene tap
P T
ec io
ĠR am
is e
Ġj embatan
Ġsi ap
Ġin ti
Ġt aw
Ġse ja
Ġdib er
ep askan
buk aan
Ġdis ingkat
Ġkap asitas
Ġmeng an
amb i
Ġsu aminya
Ġb endera
h luk
ĠS ol
ĠM ic
ĠV I
Ġt ulang
Ġj enderal
Ġanim asi
gawa i
ĠF re
tern atif
ĠC al
tor an
Å «
la v
ter an
angg u
ah as
Ġ198 3
te d
4 9
Ġmen angkap
ĠA lam
C yper
Ġs uka
uj ian
ĠRec ord
Ġ197 9
ĠSo uth
ĠA th
aw atan
orm ati
angk it
Ġperk ebunan
Ġp art
Ġat uran
K B
Ġberk uasa
in is
Ġpern yataan
I m
anc angan
us antara
ĠM y
Ġsatu an
Ġdikar enakan
ti p
gabung kan
eb aran
ĠG ir
ĠS eh
ĠY e
Ġnuk lir
Ġt emb
Ġb ank
t ro
ĠG ra
ĠMen engah
Ġsem acam
i ang
us ulkan
emb unyi
Ġmemba ca
ĠPen y
Ġpo in
ag amaan
Ġbertu juan
Ġmemperk enalkan
Ġmenga cu
os en
Ġpeng ikut
as asti
Ġper juangan
A sp
Ġmen ak
Ġa yat
Ġmem uat
& #
Ġdi ganti
ali fikasi
Ġdit entukan
ĠKe uskupan
ĠMe dia
un us
C A
K ep
ĠBel gia
ĠDen mark
Ġd es
Ġs il
Ġmend ek
ĠF i
Ġs uper
S D
ĠEk onomi
Ġmeng ungkapkan
Ġm unisipalitas
est ina
Ġas pek
ĠRich ard
M A
m os
Ġ uskup
Ġtel ur
Ġre kan
Ġ198 1
Ġp asi
Ġangk asa
Ġ197 8
eri an
eliling i
ara f
Ġar mada
ĠP end
Ġadministr asi
esmi kan
Ġl iga
c el
ĠE li
ĠK antor
ĠV an
w it
Ġmen di
el ek
ĠYo hanes
Ġl epas
Ġpendapat an
Ġk ucing
Ġpenj ara
Ġp unya
Ġp inggi
Ġte ater
ra ina
Ġmengh indari
Sen ecio
3 2
ĠS emen
embali kan
eph ri
Ġim am
Ġsej enis
Ġmenya dari
oda l
Ġdan au
ĠY erusalem
Ġtampak nya
z ah
Ġde wan
Ġ Ø
an o
ang un
M eskipun
ad e
id en
anc ang
eka de
ĠPers erikatan
Ġform ula
b eda
Ġbert indak
Ġkeka isaran
ĠU p
robi um
ĠPortu gis
wa jib
Ġba yi
Ġmeng und
Dend robium
Ġrump ut
Ġdir ek
6 7
kar ya
Ġj antung
Ġdis k
ephri tidae
o ul
Ġker tas
Ġl angit
Å Ĥ
tu juan
ĠT ephritidae
Ġa gak
ĠBer sama
Ġ ur
ĠIn do
z o
Ġelektron ik
l og
ol f
5 00
Ġs ir
uc k
Ġpela tihan
Ġmeny ebar
ĠH i
j ing
Ġpenga dilan
Ġke jahatan
Ġ196 5
ik h
eku ensi
al in
Ġilmu wan
ent ina
O S
Ġdin asti
Ġband ara
Ġmengal ir
un e
ĠSen i
b arkan
el e
ĠL alu
ĠM erah
Ġ194 0
tur un
Ġ193 0
Ġmak hluk
Ġ us
ĠB ah
% .
ĠK eh
Ġp ac
ĠB or
ĠJ er
ĠMas yarakat
Ġb alik
Ġla bel
ĠB oy
4 4
oph agus
ung kan
on er
ĠM oh
ĠKong res
bar u
Ġr uangan
Ġ194 2
Ġro k
3 9
6 8
Ġs tadion
ig ur
Ġtel epon
am bu
Ġmenempat kan
Ġs im
se perti
Ġtak hta
Ġperl indungan
ĠH y
ĠAngg ota
h ak
ĠPak istan
Ġd ampak
L a
j arkan
Ġm edali
ar nya
Ġsen sus
Ġind ependen
Ġ ungg
th ophagus
Ġd ll
Ġ anjing
Ġker ing
Ġsar jana
Ġ18 0
ĠBog or
s ara
Ġdid uga
ida ceae
Un dang
7 5
Ġsen iman
Ġmengak hiri
dom inasi
ĠIr ak
w isata
eta kan
ha di
tan si
Ġ ver
Ġber ganti
Ġl etak
B eg
Ġse gi
Ġketi dak
Ġmen ambahkan
Ġmela porkan
ass ar
Ġ il
Ġs uk
ĠR evolusi
ĠB lack
r itik
3 1
Ġpro tein
ĠMan ch
ĠP antai
Ġpener bit
Ġbala pan
Ġl olos
O n
s or
Ġset ahun
ĠInd ustri
ĠG rup
Ġd ekade
buk tikan
on da
ĠUts mani
Ġseksu al
M er
o do
ĠSel anjutnya
gal es
Ġper ilaku
Ġ 00
Asp ara
ar ung
ĠC arl
Ġ197 5
Ġmenga w
Ġr angkaian
Ġh a
ĠP arlemen
ĠF in
ch us
ĠAm or
Ġdi dapat
Ġ3 00
Ġke agamaan
aw al
Ġsin etron
Ġd u
ta g
Aspara gales
) "
ro versi
Ġmel uncurkan
Kar ena
Ġv irus
Ġp ajak
Ġper ingatan
Ġpro m
ĠK ek
Ġg elap
Ġmend engar
ĠP op
p ut
lak ukan
Ġdis t
Ġm aksi
ĠInstitu t
ch er
Ġberl okasi
Ġsej arawan
T e
Ġm u
ĠK uno
et t
ola bor
i al
o e
p eng
Ġmeman faatkan
ĠN abi
8 5
M a
Ġr ilis
ul idae
enti tas
uk e
Ġpemba lap
ol ia
per t
ĠPasi fik
Ġl angkah
ĠAng eles
Ġitu lah
ek tif
ĠO perasi
ar s
ĠB uku
Ġal ternatif
uk iman
Ġkritik us
Ġmend erita
Ġm ini
Ġap apun
Ġkol eksi
ĠUk raina
Ġmeny erahkan
ĠN usa
ĠG edung
Ġl anda
ac k
ĠPal estina
ah at
ed e
id ur
Ġ196 7
Ġdip engaruhi
weg ia
Ġik atan
ĠMar tin
gan egaraan
han i
ĠSebelum nya
ĠS oc
ĠTekn ologi
Ġ197 6
Ġ umur
Ġ3 2
Per t
elam atan
ĠPer si
to doks
Ġs tabil
st en
Ġl ulusan
ag ar
ĠV ol
ĠT api
Ġkoloni al
rop is
Ġselam at
Ġ197 4
in ia
Ã¡ n
Ġdika lahkan
um bu
Ġdit ambah
ela jah
ĠTip ulidae
ĠP BB
dok teran
r ing
sep h
Beg onia
Ġsi apa
Ġmeng arah
Ġpeng ganti
Ġker j
Ġp ari
ĠD ay
ant h
at ri
ĠL embaga
Ġas tr
Ġz at
unt y
om y
O C
Ġperse gi
esk rip
ĠBant en
em ia
int asi
Ġsk ala
Ġke tu
leg e
i arkan
Ġun dang
and ra
Ġpengg emar
ĠChr ist
ĠVic tor
Ġterb anyak
usi r
5 5
ĠUE FA
tes tan
Ġn asi
Ġberl anjut
ĠBer lin
ĠDir ektur
3 4
k om
p res
at ik
inggal an
g ht
Ġg angguan
Ġmat ematika
T im
Ġfil safat
ĠT op
Ġ197 3
ĠK udus
anda l
ĠW ali
entu an
Ġga gasan
/ &
ĠB ulan
Ġn yata
ĠIn ter
as on
Ġ #
Ġs api
Ġik lan
Ġdila porkan
ept unus
A c
Ġg olongan
n um
Ġ196 9
Ġr evolusi
ĠMat ahari
tu gas
Ġsik ap
ad ilan
Ġg ubernur
Ġta yang
Ġmengund urkan
ĠAn ton
rop ol
Ġpeneli ti
S i
ĠK ir
ã Ĥ
Ġk ri
li c
S al
as akan
Ġmeny elenggarakan
Ġid entitas
il idae
ĠR ob
Ġpeng usaha
ĠP ad
Ġrah asia
yp hi
Ġbukan lah
ĠI S
ĠD om
Ġ196 8
T h
ĠK ampung
ent ar
bu lan
ĠKe amanan
ik o
Ġh ip
ĠH ab
6 6
al o
Ġpela tih
ĠPa ulus
en om
ĠP utra
Ġdi di
dah ulu
Ġsec tion
Ġmen ara
ĠSo ek
yphi idae
ĠAk ibat
ĠLin yphiidae
Ġpolitik us
ĠMycetoph ilidae
Ġkepad anya
ĠT uj
ĠMal uku
c ang
wi jaya
Ġberp indah
Ġper ayaan
Ġkomun e
Ġhi buran
Ġ isi
Ġmin im
n ah
ĠP S
ĠR iau
ĠF ir
el s
Ġ arus
ĠT s
Ġintern et
uk kan
Î ±
Ġ194 8
ogra fis
Ġ196 3
w o
ĠâĢĿ .
g askan
O N
ĠDe wa
ly wood
Ġpa gi
ĠDana u
ic u
ĠLu ar
Ġse tidaknya
Ġh abit
aks asa
Ġkamp us
Ġrek or
Ġh otel
Ġseba ga
Ù İ
Ġkeker asan
n ow
is k
ĠW a
ĠIs tilah
ĠKom ite
m asa
ĠK arang
Ġser angkaian
ak aman
Ġgi gi
ek atan
i i
er e
Ġmen t
ref ektur
Ġt idur
ĠR ock
ĠL aw
ĠPer k
c am
an kan
ĠB ag
K on
ov asi
Ġmeri am
Ġf okus
ri ck
uh kan
E ric
o is
Ġ197 7
ĠNa zi
ĠSur iah
ga gal
Ġm edan
ĠComp any
An g
Ġmengirim kan
ch t
Ġ197 2
ĠE v
Ġkar tu
V D
Ð °
Ġmenga jukan
n as
ak tif
ĠNor wegia
ba iki
angg ar
ĠJ l
ĠTim or
er m
ma is
Ġmusi si
c aman
U ni
ĠCol lege
Ġj urusan
al s
k on
Ġ194 9
Ġka ca
Ġ ä
Ġpem an
ĠP es
ĠR us
Ġvol ume
ela ki
Ġ197 1
Ġditu tup
ĠP in
Ġan alisis
Ġik lim
Ġsen gaja
ap us
Ġpem buat
Ġmes ki
Ġ à
Ġfisi ka
Ġdih arapkan
Ġpensi un
Ġse tuju
Ġwa jah
A L
omat is
em uka
Ġpem ilu
ash ington
ĠSek retaris
Ġu lama
Ġdial ek
ĠPro testan
Ġform at
al isasi
Ġmeng or
Ġan da
L e
4 2
ent angan
ar as
ĠC enter
Ġmengh entikan
w angi
ul lah
Ġsi aran
f era
Ġper ak
ik ul
onj ol
Ġ194 6
Ġkam ar
ĠK amp
ĠLou is
Ġt eb
o ft
angk ut
ĠMa x
Ġtersi sa
at es
Ġb elah
G en
asih at
A D
ĠKe juaraan
Ġ196 6
ĠM asa
ul itan
K ec
Ġp adi
ed ral
atu kan
Ġ196 2
in ci
Ġdi atur
ĠR ed
ĠSe j
Ġlam bang
ed y
a bad
ĠK ata
4 1
ĠS ah
g ra
j uh
ak ta
ĠC amp
Ġmen ambah
Ġkont roversi
Ġhadi ah
Ġmik ro
P h
wan cara
ab eth
efinisi kan
9 9
j ahan
Ġc uc
ĠW ah
erb ia
Ġkeka lahan
ĠP asar
ĠN usantara
Ġterp aksa
da ftar
ĠB on
b ungan
ĠB ak
Ġpro p
ĠA dam
ja an
Ġbak teri
Ġpas al
ĠKel ompok
Ġ196 4
v o
Ġdi butuhkan
ĠMil iter
Ġla yak
ĠM ont
h u
k apal
Ġbuk it
eja la
Ġkom andan
Ġal k
akam kan
ĠD ani
tic idae
ĠMak assar
ĠEd ward
Ġneg atif
ĠSal ticidae
ĠL ove
ĠH otel
Ġf ot
Ġhal nya
Ġl omba
Ġi zin
k ah
Ġk endali
ĠD ewi
Ġb ulu
ĠN ob
Ġg empa
ĠKes ehatan
ik al
Ġprom osi
ĠN et
ĠK y
ju ga
Ġterk ena
ĠN ap
Ġmemba yar
Ġp ew
si on
Ġro da
Ġbel iau
Ġmengi si
Ġdisi mpan
Ġberg antung
Ġin dah
k ira
Ġw ali
P K
b ol
Ġpela jar
ĠMat aram
ul t
Ġdip anggil
pe disi
Ġbert ambah
Ġmin uman
Ġgug ur
in ga
Ġpemba wa
Ġsah abat
g es
ĠR aj
F C
ec il
ĠU N
ank er
Ġditan dai
Ġa yam
esar kan
Ġsem angat
N amun
Ġditu jukan
ĠSek utu
w anya
at t
Ġdi operasikan
era jat
Ġpem bukaan
ĠPh ilip
tur es
ĠL ab
ch en
Ġmemb intangi
j e
ma di
re y
Ġref er
r in
et ri
ic o
Ġterk emuka
Ġterj un
ĠPortu gal
Ġterb aru
A p
r it
Ġ15 0
o ok
ĠB intang
Ġb om
Ġmemer lukan
ĠAn ti
im at
ĠS ya
Ġber v
Ġkon trol
elas an
Ġdi ja
amb aran
ebih an
Ġmemper kuat
Ġmen untut
Ġsebaga inya
Ġel emen
h ip
Ġpeng er
l ia
is et
ustr u
agu e
i f
D e
Ġdir esmikan
it ungan
ĠM uda
per angan
ĠS erbia
ka w
Ġtah ta
Ġdil anjutkan
il itas
S p
e tu
Ġr eli
Ġstrat egis
Ġ amat
ĠPur w
ri ca
ĠC he
ĠW ashington
ĠCom m
Ġram but
ĠKon stant
ĠT our
ĠK ing
ĠH as
ĠV i
Ġdis usun
Ġbers en
Ġn enek
Ġak sara
rid ge
ĠArg entina
ĠKe budayaan
Ġmak na
Ġtert arik
t op
ĠMes ki
Ġdim akamkan
il ir
fa at
Ġr usak
Ġan caman
Ġdit ambahkan
ĠH all
Ġc ocok
Ġi on
ugerah i
Ġke uskupan
Ġpe gawai
ir kan
A ster
ĠOr todoks
Ġdiper t
Ġ19 20
Ġs yarat
rom y
ĠS umber
ap p
Ġmeny erah
g ung
etak kan
Ġsub s
y ana
Ù ħ
d uc
ĠR T
b is
Ġl uka
Ġ194 7
Ġkela pa
Ġpeng unjung
Ġg ame
ĠS et
Ġw as
Ġl elaki
ok a
Ġ end
Ġbin atang
ĠO p
ry s
uda k
Ġwilayah nya
ĠIm am
emu da
ĠGer akan
Ġp ul
Ġmenyimp an
Ġ196 1
di um
Ġsaud aranya
Ġt un
Ġse ekor
anta u
Ġl irik
eran kan
Ġh arapan
Ġv ari
Ġpad at
6 4
ah ap
og o
w ara
mais uri
9 5
b esar
Ġm ula
Ġf estival
up u
Ġpenyelenggara an
Ġdi yakini
Ġmeng enal
Ġdir ektur
luk kan
Ġpem ikiran
ĠJ in
Ġdia dopsi
ĠMas ehi
Ġber dirinya
ĠG un
ĠUtsmani yah
C O
Ġkeb i
angk u
odi fikasi
di am
ĠB us
Ġga bungan
Ġpenye bab
ĠS K
Ġlem bab
Ġpelaks anaan
Ġb uruh
Ġpenga k
Ġm i
Ġal um
emba kan
men ia
el uk
Ġk unci
on c
Ġmen eg
Ber dasarkan
Ġmengen akan
w u
ĠM r
ĠCor por
Ġkes e
M an
Ġber as
ĠA cara
Ġkes ulitan
Ġberj arak
Ġn ormal
) :
si li
Ġmem aksa
ĠH u
il angkan
Ġked udukan
Ġtan k
un tuk
olisi an
Ġk re
Ġber angkat
Ġj ustru
Ġad egan
Ġhari an
ĠS T
ĠN as
Ġmenya mp
Ù Ĭ
ĠF orm
Ġberv ariasi
Ġter bukti
ĠG uru
d at
Ġl ubang
ĠDis ney
d eb
ĠB ri
adap tasi
er to
ah ir
j alan
ĠC ek
Ġpeng elola
z er
ĠL uk
ĠB ata
gan tian
tre et
sik o
ah it
ĠV ir
Ġdip en
7 8
et as
Ġmel intasi
d engan
us uf
Ġb ilangan
olabor asi
ĠL es
eg at
k m
amb o
emp ur
oksi da
ĠJ am
enda m
Ġpas ir
ĠKap al
Ġeks p
Ġp las
ĠHar ry
Ġg ula
ec uali
ĠO k
Ġm arah
ĠW ill
ĠD am
ĠGir l
Ġdik elola
Ġeks ekutif
Ġber turut
E N
Ġd ek
Ġs upaya
ent ing
Ġmemp engaruhi
ul ukan
Ġkeb ebasan
m ana
ar o
5 8
Ġb asis
Ġkom ik
z oa
ah aman
Ġker ap
og le
r ut
Ġterl ebih
Ġdag ang
Ġj urnal
Ġbersa udara
ĠC D
Ġpemb ela
ĠB est
ĠL eb
Ġben ua
ĠJo seph
Ġke juaraan
anc ur
Ġt enggara
Ġdi man
Ġmen angani
anya an
ĠF ranc
ĠSa int
Ġmemas ukkan
Ġp angg
ĠJ ean
Ġba ja
amp ing
ĠBr it
Ġpendiri an
ĠW I
Ġkesep akatan
o ff
Ġb encana
ĠB apak
Ġr aksasa
ub e
Ġpen emuan
ĠR ay
und er
oba an
Ġot ak
Ġlem ah
ĠBand ara
U S
Ġsin yal
Ġber agama
Ġkons titusi
6 2
M yr
j in
os hi
Ġ ali
Ġdi as
ĠH adi
engg elam
ĠD ur
ĠW ales
Ġri tual
ĠRecord s
E n
k amah
Ġper annya
Ġ195 8
4 3
Ġmember it
i us
Ġditer jemahkan
Ġtertu lis
Ġj uni
ĠK eluarga
Ġg una
ti ba
Ġdipl omat
Ġpemerintahan nya
Ġme dis
Ter dapat
eb arkan
ĠP ot
Ġku alifikasi
ar ch
ant ri
pur na
Ġot omatis
Î ¿
Ġ ev
ur unan
ĠF rancis
Ġmenjadi kannya
Ġk anker
sen diri
ĠJ u
Ġkesa lahan
Ġmeny ukai
re am
atal kan
Ġdib antu
on trol
ĠP u
ol ar
20 10
Ġper gerakan
Ã §
Ġsek elompok
ahari an
Ġat ap
Ġpasi en
Ġkes enian
Ġg aram
Ġked atangan
Ġdip andang
ĠAmeri can
Ġma lah
Ġ195 9
la tif
Ġke enam
oleh kan
ĠKomun is
Ġke inginan
Ġt angk
ĠDr s
ĠSeh ingga
ĠD ok
Ġk umpulan
ĠS tr
ukses an
Ġditu gaskan
ala u
P r
Ġstrat egi
Ġbers ek
K er
t empat
ĠMis alnya
Ġpenja ga
kaw inan
m ata
em uk
k at
ĠFr ed
Ð ¾
dik si
unj ungan
Ġkam era
Or ch
Ġ3 8
à ¸
ĠB iz
Ġterk adang
T P
ĠJ adi
is ter
ĠG us
ĠH ingga
Ġja wa
ĠSel andia
el li
ĠAl eks
osk op
7 7
ag an
ĠAyah nya
Ġmen u
Ġdi re
Ġter jual
Ġmenyamp aikan
arta wan
eli tian
Ġp al
Ġmelam bangkan
Ġ194 4
Ġt ran
ĠK un
Ġhal us
Ġpendek atan
g asi
ĠT ingkat
20 12
Orch idaceae
Ġri siko
Ġsus u
ari tas
Ġbi ara
hasil an
Ġada p
Ġmemp romosikan
Ġper ek
angka bau
Ġib adah
ipta an
ĠRadi o
ĠSe orang
Ġdian ugerahi
P M
aj uan
Ġz ona
ĠC inta
ati ons
ĠK ara
Ġmen unjuk
Ġsu ami
est ik
Ġ7 5
ĠAss oci
Ġp apan
Ġmateri al
ros oft
Ġ ular
Ġar ke
ĠP la
ĠU l
Ġn i
Mic onia
Ġt arget
per im
ĠBuk it
Ġse iring
anj ir
Ġmul ti
ĠR ef
ob ot
ĠK os
op ter
Ġdis er
Ġpengak uan
Ġh ist
ĠH it
P D
Ġ urusan
pat an
Ġdir encanakan
Ġk ira
anc arkan
E ug
e o
Ġmem ec
ew ar
ĠM ir
Ġro ti
ĠP ari
ĠY a
ta d
ĠP enduduk
ĠH anya
Ġdit empuh
yak inan
6 1
I V
ĠPal embang
T idak
ok u
ĠB ei
at s
% ,
ĠI tu
ul l
er ing
la i
ĠT ib
el m
U N
ons tr
Ġb as
Ġof f
eg oro
uda l
ĠB ek
Ġbersen jata
ĠS ak
Ġh endak
ver sal
200 9
k es
Ġp id
Ġdipas ang
Ġn it
Ġag en
ir aan
sk y
in et
ad angan
Ġpres tasi
es si
c ol
ua la
Ġorgan ik
ĠNor th
Ġditer apkan
M usi
Ġper sa
Å ¡
Ġper awatan
M S
Ġpem bagian
R L
Ġb unuh
Ġpend erita
Ġpel unc
ĠCorpor ation
Ġas et
ĠMin angkabau
ti r
Ġdil antik
Ġber se
ĠW at
y m
200 8
Ġins tr
ĠMusi k
eli ti
Ġdebut nya
Ġpeny i
Ø§ ÙĦ
ĠS ama
Ġsp ek
ĠGre en
k el
ih ir
ers on
v ille
ĠB is
ump ai
Ġleg enda
Ġp arah
ĠSur akarta
Ġak tiv
ĠAs h
Ġkons truksi
ida h
p anjang
Ġl e
ĠA v
ĠR eg
Ġdig elar
á »
Ġp or
Ġk andang
Ġdik uasai
h atikan
si den
ĠP utih
Sa lah
Ġp angeran
Ġdep artemen
p r
Ġmem erankan
Ġkepad atan
ul uki
di h
Ġs olo
ĠS olo
Ġberk urang
Ġper damaian
ĠH ill
ĠS as
ĠS tor
Ġke te
ĠU U
ell o
in er
ĠR at
ĠS us
Ġanim e
Ġ4 00
Ġp angkat
Ġin vasi
m isi
en ya
6 9
Ġp re
Ġmul ut
im i
da erah
s ari
t em
ak et
an tikan
ĠB ern
om en
Ġpengh asil
Ġset ara
Ġter jemahan
angk atan
ĠAr menia
A F
h ai
ud ang
en ario
ĠS he
ĠD ik
wa an
Ġw ith
lih atkan
Ù Ĩ
ĠA y
or s
Ġlel uhur
Ġ194 1
/ /
la via
Ġdi v
Ġpenc arian
ĠM inggu
Ġsp ir
enom ena
Ġpr asasti
x i
on an
Ġ195 7
s esi
Ġkep ulauan
Ġform al
ĠIntern et
d el
Ġs taf
Ġpasukan nya
ed erasi
Ġmel epaskan
re e
ian o
in ter
al og
Ġper lawanan
8 8
b atas
Ġm aj
ĠS anta
omp etisi
ĠAl l
isi on
Ġbi ji
Ġp ur
k y
Ġter daftar
Ġka bel
Ġtim bul
Ġge ografis
ĠPer wakilan
A I
ĠN ik
dik asikan
Ġpes ta
ensi f
ord in
Ġmenging at
Ġkarya wan
Ġ195 6
al kan
Ġpe kan
op a
da l
ot ik
Ġmis kin
Ġmah kota
and ungan
ula san
ĠP l
se y
Ġla tihan
ĠKons titusi
Ġdi w
ap h
Ġka in
Ġpener us
Ġdimaksud kan
Ġmenyanyi kan
Ġke lak
p it
Ġ Å
ominasi kan
Ġp aruh
tr ans
antu m
Eug enia
ĠB et
ari at
ba ck
or ak
inc in
el ik
Ġsen apan
am er
Ġmemb ela
Ġinf eksi
j an
Ġdisa jikan
ĠAp p
fi eld
ing i
yanyi kan
Ġseri us
ĠPert ahanan
om er
Ġprodus en
t engah
en o
Ġpas ca
K P
up si
Ġmen andai
ĠAbdul lah
Ġ5 5
ĠSoek arno
ĠC la
Ġc andi
Ġk asih
ada ban
ĠT ab
Ġh ancur
ĠJ uga
Ġv on
ĠL im
Ġk in
Ġ ul
20 13
oid es
Ġt arian
Ġef isi
6 3
A P
up ai
Ġsin ar
Ġ3 3
n ia
Ġe x
Ġ eng
uk im
Ġpeny imp
Ġdil arang
Ġs osok
angk al
Ġot oritas
ĠS akit
Ġpend udukan
ut asi
Ġberp ikir
ĠB ola
ro f
ĠW is
Ġwa jib
ĠH igh
Ġb udak
ĠK ro
ĠRas ul
Ġdi eks
Ġpeng obatan
c ap
as angan
b all
l ow
Ġmas akan
amb at
un ting
amp ur
Ġb akat
ĠK ont
imp unan
arus nya
Ġt ri
it ori
Ġmeng ganti
Ġmendek ati
Ġk od
Ġpen e
Ġtekn is
SM A
as ang
et eksi
int is
ĠMe di
Ġref ormasi
ĠF ar
ĠN ar
ill er
ĠB lu
inta i
w ahan
Ġag ung
Ġli ar
ĠL at
ind er
z an
v in
Ġt ropis
w ana
ĠR h
ĠPer aturan
Ġt ol
ĠP eri
Ġperse tujuan
b angan
is ual
ĠL uc
ĠH at
Ġl iter
ĠV ersi
ĠB udaya
: //
x ia
ĠP lay
ump ur
ara kan
aran kan
Ġpember ontak
Da ftar
di e
ĠD VD
Ġmeng eks
ĠKer eta
Ġpart ikel
ĠM ik
ila si
Ġ195 5
Ġper ahu
Ġba lap
lin es
Ġca iran
Ġdom estik
i um
Ġba gus
Ġmem ahami
ĠI k
rag on
Ġpah lawan
ra y
ĠBata via
ĠRoy al
ari f
Ġber bagi
Ġger bang
Ã³ n
ropol itan
ĠN at
si apkan
P a
a diri
Ġmemb ahas
Ġdasar nya
ig ran
Ġm arga
ut kan
Ġmener apkan
Ġtu anya
Ġpen urunan
Ġpem ukiman
ed onia
Ġmemas tikan
s ki
20 11
ant ang
uc apkan
Ġh erb
Ġ194 3
ublik asikan
Ġd amai
ĠMet ro
m ir
Ġkons entrasi
ĠP egunungan
h is
ya i
ĠI d
Ġdengan nya
Ġmel ebih
Ġ .
Ġbanyak nya
Ġpe perangan
ewar ganegaraan
amb angan
ema at
Ġintern al
ĠT um
ĠK ari
ara ja
tan ian
Ä «
s emb
Ġm arkas
is ensi
ali si
ĠP il
ov a
Ð ¸
Ġkeh ormatan
Kec amatan
ĠR ama
ĠSh ow
Ġkont eks
gagal an
S S
Ġr upa
Ġmemen angi
Ġkek ayaan
ĠF a
esa an
Ġber te
Ġpem akaman
Ġ3 6
Ġdin ominasikan
ras ah
Ġpil ot
ot anya
Ġrumah nya
d ney
emp or
anti um
ĠA ug
Ġmeng operasikan
Ġsa wah
ĠD at
ĠChr isti
ĠMic rosoft
madi yah
Ġsep eda
ĠM ada
ing at
Ġm anga
tu re
Ġdit inggal
Ġmemba gi
Ġmur ni
ĠMan usia
ek aran
ip ula
Ġmanaj er
1 00
o or
ĠS treet
Ġregi onal
Ġkeb un
Ġmeng gabungkan
Ġmenja wab
ing inkan
ĠP am
ĠL or
ĠCl ub
um ahan
Ġg itar
t he
Ġberk isar
Ġka bin
ĠKar l
Ġt ud
on ya
Ġberk at
ĠPenga dilan
Po ales
onf irm
Ġ1 20
Ġsen ang
Ġmenurun kan
iet y
uman ia
ĠP esawat
Ġn y
K T
m eng
ĠS ud
7 9
ah i
hir e
Ġjuni or
Ġke ju
Ġtahun nya
ĠH asan
isi si
unj ang
ĠS ci
Ġmel arang
ĠDaya k
Ġak un
Ġterm inal
ĠV II
ang e
Ġsem purna
uj ung
Ġmenik mati
Ġdr um
Ġkom ando
ĠPem ilihan
Ġseja uh
Ġdiman faatkan
s at
ĠMah kamah
Ġb lok
ektor at
ag ia
Ġmen onjol
Ġin fr
ĠPer p
li e
z abeth
Ġp angan
ĠS ampai
Ġter sendiri
Ġrat usan
s eb
Ġmem anggil
ĠAnd r
Ġfr ekuensi
Ġkri sis
Ġdi aw
ĠM ek
ĠKom andan
ĠSim on
te gr
Ġf ase
uti p
S u
or gan
ku it
Ġmengh adiri
ĠKe tiga
Sem entara
Ġm ar
Ġmeng ejar
ĠLe ague
Ġmend arat
redi t
Ġt ahanan
Ġmen embak
e x
Ġmen unggu
Ġpers onel
Ġberk umpul
200 5
Ġd etik
Ġmeng elola
reg num
Ġpenulis an
ĠAir lines
in j
ump ah
l eksi
ĠV ideo
ĠB ea
ĠSe jarah
Ġj ari
Ġ195 2
esu aikan
Ġ3 4
0 5
ili kan
Sek olah
l on
emb ahan
ĠLi u
ask et
ek usi
Ġtak ut
ĠL as
hadi ran
Ġmeny usun
ata an
ori fera
Ġber juang
ĠY eh
Ġmelebih i
wan an
ĠE f
ĠSa udi
ĠJep ara
Ġdin yanyikan
Ġperp ustakaan
ĠDani el
am ar
ĠP ah
ungg ung
ikul um
ĠP ember
Ġj en
erta i
ĠSamud ra
r em
Ġpam eran
c ur
Ġ ë
Ġ4 8
Ġmerek am
ar ya
Ġl urus
ĠF ox
Ġseh arusnya
Ġt aj
ĠK id
m um
ĠK enn
o us
M us
in um
Ġwa wancara
ĠKat egori
E C
ĠS aw
Ġpec ah
Ġres toran
Î ½
ant angan
Ġb andar
ĠK ak
al k
Ġins titusi
ĠS ta
pati ens
ĠI sa
Ġleg is
S c
b inasi
amb ilan
li um
Ġdic atat
Im patiens
eg as
Ġv ariasi
elih ara
Ġke lam
ĠN AS
ĠM otor
Ġh ektar
ĠO ne
Ġper kawinan
ĠL ingk
Ġse waktu
ol an
Ġmem isahkan
Ġpem bu
ĠSh ah
i on
Ġm ag
Ġb y
Ġcuc u
turun kan
Ġse sama
Ġ3 7
Ġdis erahkan
Ġ193 9
ĠGo ogle
Ġbet ina
od y
ĠPro ses
Ġangg aran
Ġbersa ing
Ġpen inggalan
ĠAd ministr
S tasiun
ĠPr es
Or ang
Ġt uk
Ġmemper luas
Ġmenya m
Ġinves tasi
Ġt es
ĠA walnya
Ġberb ahaya
encana an
ĠJac k
ĠC ur
ma cam
P enduduk
ĠP orifera
Ġsi ang
Ġber alih
n ik
es in
Ġterb unuh
Ġkeb enaran
Ġs c
oy o
Ġkr im
Ġk unjungan
ela t
oh ol
Ġpen ari
9 8
l ek
in aan
ak ia
ĠD NA
rah im
untu tan
l ot
Ġpemb erian
ap ahit
Ġsub regnum
Ġa udi
ĠO x
ĠPara zoa
ĠInstitu te
am ana
Ġdib esarkan
Ġd en
E T
ĠP ala
ĠM ilan
ĠKh usus
Ã £
ti ons
Ġmeng endalikan
Ġ195 4
9 2
Ġm odal
yek h
Ġres olusi
Ġse tia
ĠSemen anjung
Ġkes uksesan
ĠS and
ĠR umania
ih an
ĠGeor gia
hann el
onom ian
i bu
200 6
Ġmis teri
ela yan
Ġterh ubung
Ġm akin
Ġka cang
Ġprof esor
Ġhid rogen
ĠB angunan
ĠP lan
ia ceae
Ġte p
200 7
Ġlam pu
am is
ĠM osk
ut ri
man en
Ġbersi h
Ġ ulasan
Ġberf okus
ĠManch ester
ĠTuj uan
end ek
Ġkem ajuan
Ġd ef
ĠL ebih
b ot
and anya
P ers
m ah
ed er
ĠSy dney
Ġmemper ing
ĠSh ang
Ġlok omotif
in jam
ĠBi asanya
Ġb on
ut in
Ġak ar
Ġberp usat
Ġis u
rat is
ĠF at
ĠSm ith
ant ar
Ġeks tr
Ġr ancangan
L A
Ġp ir
Ġl embah
ed ang
Ġkerj asama
Ġw artawan
f in
te grasi
tur kan
Ġmenekan kan
e ing
Ġti ang
Ù Ī
Ġdi turunkan
Ġter ang
ĠT empat
mos fer
z inkan
ĠK op
ĠF ac
Ġd osen
ĠG ames
Ġberk ewarganegaraan
ĠPen c
Ġw arisan
on egoro
ĠJ i
ungg uhnya
Ġt ir
Ġjabatan nya
B I
Ġt anggung
Ġcok lat
ĠAth ena
R A
ĠG ab
Ġtubuh nya
Ġdika itkan
Ġb anjir
ĠW u
Ä ĩ
Ġber encana
ĠBay ern
Ġj ulukan
im er
Ġla bor
Ġt omb
ba wa
Ġtertu tup
K A
em as
Ġper baikan
ĠMar y
Ġseb aliknya
ĠKon f
Ġangk utan
Ġadap tasi
m ula
ak lukan
ĠG ad
lu an
Ġdip egang
Ġberk ompetisi
Ġribu an
Ġdist ribusi
b arang
w n
ĠP ac
ĠA ku
Ġorgan isme
en se
Ġmenyer upai
Ġke hadiran
Ġj antan
ĠSy stem
ĠT egal
tr in
ĠO lahraga
ĠS id
Ġkomp osisi
Ġp eta
Ġp ikiran
Ġb ulat
ĠM ol
z hou
ĠS ara
Ġja d
Ġc ac
Ġdij uluki
ĠPic tures
Ġpinggi ran
ĠKe uangan
ĠEli zabeth
ĠH awa
Ġkon vensi
Ġpel uru
s burg
esa in
se a
ni e
b ara
it ch
ĠA bad
200 4
ujud kan
, ,
it anya
ĠAssoci ation
Ġs imp
ban kan
Ġpes at
ĠW ang
Ġmem andang
as ana
u do
ĠL aks
ra c
p in
u disi
ĠL ong
m bangkan
ter masuk
z ar
or us
ĠL omb
Î ¹
ri e
Ġberper ang
ĠS ap
19 5
Ġ! "
Ġketu juh
ila t
ĠSoc iety
ĠCh i
ĠTe x
Ġmin eral
ĠD al
ul ia
ĠPer tanian
m ed
Ġkes elamatan
Ġmengh ormati
Ġman is
ord inasi
Ġke yakinan
ĠEp isode
ĠAkibat nya
Ġak ting
o per
ĠAlex ander
is ahan
ĠP os
ma il
Ġmenga jak
Ġmengi zinkan
Ġmem buktikan
ĠFin landia
amb ing
yang nya
ĠAp i
Ġkr itis
ĠIn c
Ġkl or
ĠB ung
Ġdit olak
ani c
ĠPang lima
L i
Ġberh ak
ĠB ut
ed uk
ĠMuham madiyah
V I
ĠB in
Ġmemper baiki
ua ca
ros s
Ġh arta
Ġf akta
8 7
ĠL ima
ĠH ot
asa annya
Ġpend eta
Ġmit ologi
t t
ac un
ĠMar s
Ġsek utu
Ġas isten
Ġv arian
Ġm ala
Ġdij elaskan
Ġu ap
si si
ĠMaj apahit
Ġk lan
ĠK m
Ġmen empuh
ĠAt l
Ã¼ r
usi f
b as
r um
Ġmen yang
Ã ¢
ra in
Ġr esi
Ġpert anyaan
ĠSek itar
ĠQ ue
Ġmenj elang
p lin
ĠB alai
ĠC as
Ġkomun is
Am erika
a bu
s atu
ĠR oh
end ra
Ġsa dar
ĠTer l
olog y
am mad
Ġakadem ik
y ung
er ahan
Ġk g
ĠY ak
Ġspesi fik
ĠFri ed
perti mbangkan
ĠBr un
t ok
Ġ evolusi
Ġmen utup
Ġw ujud
Ġkeb akaran
ĠSep ak
f inal
bu ku
R e
ar di
imp i
Ġses udah
amad ya
ĠK us
Ġmenyebut nya
ter aan
ig asi
Ġ195 3
Ġpenya ir
di tor
ĠM obil
w ork
Ġsemu la
n et
Ġmen ahan
Ġmem indahkan
Ġpangg ilan
tu l
Ġmeneg askan
ĠB ob
Ġdip ro
9 7
Ġj e
s em
ĠA L
ĠS qu
b our
ĠS ul
S el
Ġp andang
ĠKaw asan
Sal via
r and
M ela
er at
ĠK uala
Ġdise diakan
on im
ĠWI B
Ġber guna
ĠN an
D A
am ba
Ġwisata wan
Ġberse jarah
em bus
ĠS ha
Ġmeng embalikan
ud in
B anyak
ĠAran eidae
Ġpelangg an
c aan
Ġmeng atasi
ĠBo eing
ti tas
Ġat let
Ġj ahat
ĠO ff
Ġhar inya
m em
t okoh
ĠD ong
ĠS astra
Ġmer usak
Ġmin um
emp ah
jad wal
Ġtet angga
on ik
si al
ust in
In donesia
Ġlabor atorium
ĠS taf
S T
Ġke gagalan
su f
Ġk uan
ĠO ri
Ġaktiv is
ĠW anita
Ġt arik
Ġpel indung
ĠS is
Ġba wang
ĠTim es
Ġk andungan
ter s
ĠL uth
Ġbi oskop
onal d
Ġmenjal in
ĠBiz antium
ic ago
Ġmemba wakan
Ġkot ak
Ġrok et
Ġlanda san
ĠP ek
ĠB ir
Ġmem icu
ĠSela t
ĠW angsa
ĠZ aman
Ð µ
Ġdim inta
Ġ195 1
Ġb ir
am but
ad aran
Ġkek urangan
K om
Ġt entu
ĠTel evisi
s tr
Ġp okok
ĠIn t
Ġkak ek
ĠInd ra
Ġkes atuan
ĠB ila
Ġmenye tujui
b and
ĠI T
Ġterl uka
Ġd erajat
ĠD har
i er
ĠSur ya
Ġat mosfer
ĠD KI
ĠI X
ĠT ern
ĠR en
ĠC ip
ungk ap
Ġeks pedisi
b olehkan
Ġm eta
Ġdise tujui
ĠS itus
ĠCo unty
Ġoksi da
ĠH ir
Ġkarakter istik
Ġ usul
Ġg ejala
ĠH us
Ġpembela jaran
ĠW ir
Ã ±
Ġh abis
Ġp ip
at is
ĠY usuf
in n
ela i
g am
R es
as truktur
ist al
Ġmer aya
anj angan
Ġh om
Ġkal ender
uk un
Ġpen utup
ĠQ ing
ĠBrit ish
N e
an on
itu al
eg o
Ġb aris
Ġter gabung
aman nya
r isten
ah abatan
ga iman
Ġperc obaan
Ġpers amaan
Ġpener ima
Al lium
Ġmor al
m ond
ĠF u
Ġkeper luan
ĠMod el
Ġtud uhan
Ø ±
Ġmeng usulkan
Ġf enomena
Ġg ua
Ġuj i
ar th
ĠMus a
Ġper manen
isi han
Ġmener uskan
ĠP asal
om enda
ĠPer guruan
Ġpeny ebaran
iden tifikasi
ĠS om
ĠT ata
ar jo
ef f
Ġber da
den tifikasi
Ġlam bat
Ġ(; )
eku atan
E l
N S
ĠM aya
f ur
ĠT as
ĠForm ula
ĠS on
un sur
Ġmeng u
Ġt eh
Ġr apat
Ġkom binasi
Ġlingk aran
ĠPon dok
Ġmemb edakan
ĠIb nu
il y
Ġl ib
tap an
ĠP anjang
ĠCh a
Cyper aceae
ed ar
Ġkal imat
Ġm aksud
ĠB eng
A d
ĠB engk
ĠTe ch
y yah
Ġmem engaruhi
ĠSM AN
c on
ĠM id
og on
ĠSeri al
ĠB re
A g
l ihat
ĠBei jing
ĠK ul
m inal
ĠR egi
Ġpem ekaran
Ã º
tu lis
Ġdij umpai
Ġer at
ur o
Ġdih uni
orm at
d esa
ak m
ĠC andi
Ġ Ø§ÙĦ
ang nya
di paten
ĠJ im
Ġkon ferensi
Ġsemen jak
Ġn abi
Ġg ratis
Ġkepem ilikan
Ġmu atan
ĠS imp
Ġpen a
Ġa bu
yak inkan
Ġon line
Ġlar utan
er ti
Ġp ang
sen jata
in op
ast il
ed eral
Ġper asaan
ampil annya
Ġd osa
ĠG od
ĠKom ando
urn alis
Ġk andi
ĠS C
ĠB entuk
b ek
E O
ribu sikan
Ġmekan isme
Ġd efinisi
Ġj uri
S o
ĠS ari
ĠS ant
or eng
Ġdem okrasi
ĠKap ten
Ġd oa
Ġpe juang
Ġs ol
utu an
Ġdij alankan
ena zah
8 9
O M
Ġres ep
empor er
N ew
Ġd ulunya
ĠPert engahan
Ġdik elilingi
od es
R aja
das ar
ĠM un
ch el
ĠK um
ĠMad rid
ĠVir g
ot an
aw ang
Ġpes antren
ĠS ay
ĠS ip
Ġsem esta
Ġdic apai
jah teraan
ob atkan
Ġs tr
ĠN am
Ġmul anya
Ġdiper gunakan
ti pe
ĠS unan
Ġjad wal
l ement
ĠP us
Ġr atu
ĠP D
Ġmemper lihatkan
8 6
s uku
es ak
ĠC ast
ĠPer h
Ġba bi
Ġa wak
dis ingkat
P U
Ġper adaban
ĠD ev
Ġpari wisata
w are
Ġsk enario
g y
ĠSh in
Ġtemb ok
buh kan
ĠIb rahim
Ġpelunc uran
Ġpeng arang
ĠMana j
r ol
Ġber anggota
ant on
ad at
g aria
ab ila
Ġm eja
ĠT ol
iv ora
Ġregi on
Ġmur ah
ar ing
or f
ĠPen er
v ei
Ġke j
ĠY ud
ra ft
Ġdim enangkan
ĠPela buhan
Ġberk el
ĠA la
ur asi
ola si
J ika
Ġb al
Ġpe tugas
kan d
sa at
P emb
Ġker abat
Ġko lam
ĠS isi
en alan
Ġpem ro
ĠVictor ia
ĠT anggal
Ġrasi o
Ġdi isi
ĠH aji
Ġc uaca
Ġkandi dat
ar gai
ĠAda pun
ĠW ay
Ġ6 5
ĠH ad
ent ik
Ġger ak
200 1
B M
la di
st ensi
U M
ĠF e
Ġmenga jarkan
all y
osis inya
j aman
ĠE st
ĠGol den
Ġdirek am
Ġ4 2
ula tan
ĠPes antren
I A
tual angan
ons umsi
Ġon lyinclude
s et
Ġk asar
Ġku tu
Ġmenging inkan
ir iman
Ġdis ertai
Ġmend atang
ja ga
k ol
ĠN av
u gi
Ġ q
al isme
Ġl evel
ĠSM K
ĠT ah
ĠS E
Ġletak nya
alif ah
7 6
Ġkebi asaan
F ab
Ġmenga dopsi
Ġplat form
Ġherb ivora
semb ahkan
j ect
Ï Ħ
Ġc adangan
ĠR S
eg r
em ahan
ĠN ot
gaiman apun
ĠNew s
im e
u alitas
w ilayah
Ġke g
Ġangg ur
Ġkont ak
Ã£ o
Ġberh arap
b un
Ġr iset
ĠTang erang
t ek
ĠPen elitian
Ġhak im
omy za
Ġmen ampung
ĠT on
Ġ193 8
Ġkot anya
g et
n s
ĠK et
Q ur
ĠSo eh
Ġsul ung
wajib an
z u
Ġlem ak
ĠKeb anyakan
anc ar
7 1
Ã ł
Ġp unggung
Ġmemb entang
op ia
ĠV OC
s umber
Ġperm asa
akm uran
j un
ga ya
Ġke da
ĠN atal
en anya
Ġper buatan
onfirm asi
ar ungan
ĠH itam
ĠAg romy
p ol
aj ah
Ġdip isahkan
ĠM os
Ġpa us
E rica
c ak
Ġs araf
Ġbatu an
Ġb ambu
ĠK A
osi l
ĠCh ris
ekn ik
ĠPers atuan
on lyinclude
T an
Ġdim akan
Ġbuk unya
Ġ193 3
f o
Ġn antinya
Ġc antik
20 14
Ġp akar
Ġk andung
ĠC r
ĠF il
ĠSer v
Ġpem ahaman
Ġdi hancurkan
Ñ Ģ
ti si
ĠB erikut
Ġmeng undang
ĠG il
ub er
Ġpengelola an
g h
n ilai
Ġmengh ilangkan
ada l
ĠL and
Ġberd ua
N eptunus
Ġt ahan
Ġber ulang
Ġdis ana
Ġmenak lukkan
ed era
9 6
Ġmuncul nya
ĠPro yek
ĠMak edonia
Ġinstr umen
Ġberanggota kan
Ġdis erang
b ung
g ereja
Ġpersi apan
Ï Ĥ
in ar
Ġin siden
Ġy g
ĠPe kan
z on
Ġmen emui
ĠL am
erik saan
Ġadik nya
g on
ĠNob el
Ġterin spirasi
ambo ja
ĠB ala
Ġr udal
angk utan
Ġberd arah
ĠFed erasi
in yur
Ġka dar
Ġmengi dentifikasi
as ter
Ġf akultas
Ġhanya lah
man n
ĠAs osiasi
Ġreli gi
0 1
Ġdim ensi
Ġditinggal kan
Ġdom inan
eb as
yar atan
Ġterakhir nya
ĠS aya
ia o
ĠSe oul
Ġ um
or ganisasi
ĠW es
ati us
Ġkont en
aba ceae
J umlah
L agu
ens us
Ġkos ong
S ep
v atif
Ġpel ukis
Ġpengan ut
it or
end ang
H al
K el
Ġf ederal
Ġpenyimp anan
d ing
Ġ ).
ĠS yekh
ĠM uk
ĠC hir
ĠG ib
z y
Ġs eng
Ġpert arungan
ĠTex as
7 2
Ġk embar
Ġmer deka
Ġt untutan
el le
ĠT amil
ĠJ e
Eric ales
ĠG P
ĠYo ung
Ġk ong
200 3
Ġt enggelam
ĠS ig
di aan
ĠA st
Ġdit andatangani
Ġterd ekat
m el
ĠP ort
Ġmeng isahkan
Ġen zim
Ġoper asional
ĠH ulu
Ġ19 18
ub lic
rip si
z en
Ġhid angan
J o
Ġsik lus
imb angan
Ġlegis latif
Ġmeraya kan
ĠP L
z idae
Ġb eg
ĠB oh
Ġberk as
Ġro h
Ġtaj am
Ġdi ha
Ġp ap
eb ak
Ġc incin
ĠH or
ar tikan
ĠCh icago
ĠEm pat
m bang
ĠJo se
ĠHo use
Ġberla yar
Ġ ),
ĠD or
ĠR ena
A b
G M
Ġb upati
in ir
ba ch
Ġa di
ĠPer b
Ġgen re
Ġperek onomian
c y
Ġkar ang
Ġpeng endali
ĠBul garia
Ġk ud
ĠS ala
ant is
st ribusikan
Ġre zim
Ġinter aksi
Is tilah
8 1
w ell
lam asi
Ġberm ula
ĠP art
Ġmeng ancam
Ġa udisi
Ġmeny umbang
7 4
Ġun d
Ġla zim
ec ah
ĠS ik
is m
ab et
eda h
Ġn elayan
ĠS amp
anda kan
uk uh
T ipula
uc apan
Ð ½
ĠDa ud
ĠMad ura
ĠC han
Ġkem an
Ġpela ku
Ġvok alis
Ġme yakinkan
Ġdib anding
Ġpenj elasan
ĠHol lywood
Ġmen yak
ĠL ang
ons el
ohon an
Ġw adah
Ġpermasa lahan
Ġsa y
Ġpri bumi
bu an
l os
ib i
Ġdin ilai
2 000
Ġn ada
ĠF ad
Ġpet ern
mis alnya
Ġb ung
amp aikan
Ġdib ebaskan
tiv e
Ġk laim
Ġr antai
p ulau
Ġc om
Se bagian
Ġ193 5
ĠKec il
Ġb ot
ĠJ ambi
Ġsek s
ĠMc C
ĠHit ler
per k
Se jarah
ĠS eluruh
Ġr ap
Ġla kukan
ont o
ĠMas sa
F abaceae
c er
Ġke dokteran
Ġmeng am
Ġte ologi
Ġped esaan
ĠP refektur
ol s
ĠK erja
eh er
Ġkont emporer
eskrip sikan
Ġteb al
N C
Ġ eksi
Ġtern ak
Ġmeny ebarkan
ev in
Ġdip aksa
ĠDin as
Ġs asaran
ĠFed eral
Ġ iman
Ġbu di
on akan
ĠS ai
ĠHe in
o ch
Ġp angkalan
ĠBan yu
et ro
Ġdic etak
Ġgug us
es el
unt ungkan
ĠKab inet
b enda
Ġm uka
ah ana
Ġc ur
Ġkes adaran
ĠSh i
ĠKed uanya
as ukan
ig er
ĠKro asia
P ol
or ks
Ġf lu
Ġt ek
ĠD j
Ġket at
Ġpen ambahan
ik u
Ġpem egang
ĠPro duc
tra ck
ĠMong ol
Ġs it
ĠC el
ĠAl bert
Ġja gung
Ġkeber hasilan
ĠJ embatan
ĠJ urusan
enn y
Ġses ungguhnya
Ġarsit ek
ĠKu ba
Ġm ac
Ġmel ancarkan
Ġ193 7
Ġ25 0
Uni versitas
Ġdi dominasi
Ġse si
te t
Ġl en
Fab ales
Ġv isual
Ġpend ar
D S
ana g
Ġkep ri
ks on
oph ia
Ġpro perti
Ġhist oris
Ġk ron
ĠA C
Ġc etak
ic s
200 2
F I
d es
ĠM adi
ed udukan
Ġmas sal
K emudian
c c
Ġeks perim
ĠMay or
Ġdokumen ter
M ay
Ġn et
tr um
olah an
Ġka jian
Ġ3 9
enc an
Ġt or
ĠB ig
ĠE ast
Ġbert arung
Ġh elik
Ġp on
Ġlap is
ĠRe al
Ġtik et
ĠSe c
ĠLe on
k elompok
Ġla dang
ĠB ug
ĠR esi
ĠY an
Ġber damp
w en
ĠW on
Ġmemper siapkan
ĠJo hann
isi ka
ila ian
Ġem osi
at ap
Ġt antangan
Ġ4 4
ĠBat ak
a ch
ad y
atuh kan
P B
li kan
w on
ĠS tan
Ġh or
b le
ĠS S
eg asi
Ġc edera
Ġ193 6
Ġ á
Ġmemb ant
Ġb aku
Ġpem andangan
Ġdis elesaikan
ĠB idang
Ġh ebat
c ia
Ġped ang
P ulau
in ja
ul ik
Ġbi ologi
Ġres pon
ĠT ari
Ġpeng as
ĠCh ar
Ġman diri
Ġt embakan
ut ing
f iah
Ġbert ahun
ĠSu atu
Ġmus lim
ĠK art
ĠF A
ĠF l
Ġpermuk iman
is ta
Ġber ani
Ġr utin
Ġdis ampaikan
ĠY uan
ĠW eb
ĠT ir
ĠPer mainan
Ġdih entikan
Ġber upaya
ep ung
at istik
ĠMala ya
in ah
Ġdib eli
se dur
Ġisti mewa
ahli an
Ġ Ä
Ġ1 000
ĠN ick
Ġr a
ĠAgromy zidae
G ereja
ug os
ĠSek arang
ĠSoeh arto
M y
k as
Ġb unyi
ĠS ib
Ġpeng isi
Ġkons umen
Ġtip is
ĠT oy
ĠH ai
ĠP and
Ġrefer ensi
mi grasi
gab ungan
D an
D ua
tu anya
Ġangg otanya
j ung
ingkat kan
Ġcontoh nya
Ġp aket
ĠN amanya
Ġmemberit ahu
ĠL en
ong e
Ġper lahan
Ġpelangg aran
Ġmenyak sikan
Ġ ×
Ġ ok
Ġkont ribusi
ĠâĢĿ ,
ĠK amboja
ĠZ hou
ir ah
ĠAn na
7 3
ĠD ah
h ard
Ġputr inya
Ġdiplomat ik
Ġke di
av orit
Ch rys
ĠDi g
g inya
ĠS ony
ak na
ĠKon ferensi
r umah
angka u
Ï ģ
Ġ *
Ġpeng eb
Ġmah al
ĠAnt ara
ĠMah asiswa
Ġj er
ĠR W
Ġbers atu
s un
Ġperh itungan
ĠPerp ustakaan
ua y
ba dian
Ġro mb
ĠMela lui
d ua
Ġke si
it ed
ĠD im
Ġot ot
rah at
8 2
Ġm ode
ĠD C
Ġ ï
us nya
gun ya
g el
Ġkelam in
jadwal kan
ĠS ton
Ġdid efinisikan
Ġkam u
ĠT al
lis h
Ġ ah
Ġmeny arankan
it ri
em e
im aan
Ġfil suf
Ġuj ian
umb ia
ĠS yah
ĠA las
ĠB atang
Ġl emp
ĠZh ang
bur uk
y ian
ĠW ood
Ġkep onakan
S er
aka u
ĠX II
E x
Ġdib atasi
Ġpers ahabatan
Ġmo tif
di t
ĠT ay
li an
m et
Ġan eh
G er
eta il
g ro
Ġar e
ĠB udi
Ġg arapan
Ġmeny usul
ĠV ik
emp urn
Ġpet unjuk
or th
eh an
ent asikan
al yon
Ġj end
Ġmelakukan nya
K S
Ġdi atas
ĠK ini
Ġbak al
ul aritas
M ah
ĠC hannel
ov i
ĠCar ol
Ġn om
an am
ĠG ala
uti on
ĠS tu
el in
Ġr up
Ġg un
ath er
Ġt abel
ĠT oba
Ġpenga wasan
ol ok
k us
p us
Ġper ut
ia wan
Ġpin jaman
Ġkedalam an
t ales
Ġdi alam
up uk
do la
ĠS alib
ĠFried rich
S istem
y ono
Ġinfr astruktur
ĠG on
ons o
Ġl isensi
Ġmemb ebaskan
Ġdi jadwalkan
ĠR ud
Ġmengg anggu
ĠPol isi
Ġdar urat
8 4
et te
Ġmeng usir
Ġpen angk
Ġ192 8
Ġkabin et
E ks
l ock
Ġpeng ambilan
ow ongan
ell y
Ġkor an
ĠPer istiwa
âĢ ľ
ĠÃ Ĺ
B el
Ġsek uel
ĠRo ad
ĠIn formasi
ap ur
Ġpot ongan
Ġsenior nya
ub an
Ġdit ahan
eli dikan
k en
ogra fer
Myr tales
Ġsu asana
ĠWilliam s
Ġt ent
ĠJ r
emuk akan
Ġform asi
I C
y le
Ġga lak
w w
ĠPert andingan
Ġmaksi mum
Ġr adar
ok erto
engk apan
osa urus
ĠUs aha
a usan
u tur
ĠR og
ĠBat alyon
besar an
D r
ĠY am
ĠCh ang
A C
gi h
h ol
es m
ĠBa gi
Ġtrans fer
on aris
Ġreg uler
ĠH on
int asan
ĠPr usia
mas in
est arikan
Ġradi asi
ĠHin di
ĠChampions hip
Ġk lasifikasi
Ġmemb atasi
ĠAd v
t ol
y asa
et o
Ġba ju
Ġeks por
Ġsub jek
Ġoper ator
Ġkebang k
ĠSa udara
Ġdih ukum
h en
Ġper umahan
ĠW an
Ġsis anya
Ġj uru
ĠH ubungan
Ġdit arik
em on
tiv asi
On thophagus
ĠBek asi
8 3
Ġj urnalis
ĠL ok
ala ya
Ġ192 9
- -
I T
si h
ĠK isah
ota an
ec ahan
B ob
Ġdiba wakan
Ġmin at
ĠOn thophagus
l ed
ĠG el
Ġpenj elajah
ĠPri x
I ni
ĠP anc
Ġsus unan
d uh
ĠJ umat
Ġhabit atnya
Ġ utusan
ĠD ec
ĠS amb
ka u
et is
Ġp eti
Ġdib edakan
ĠKa z
andal kan
inop el
Ġket entuan
el ian
ĠLi fe
ĠLet nan
ent o
SI S
ĠTib et
Ġkin erja
Ġber ta
ungg uh
er ba
ĠC os
Ġterb akar
Ġpenerbit an
Ġb ox
ĠC orn
Ġa w
og an
ĠPeng embangan
bu kan
Ġwa yang
Ġe ditor
si um
ĠM ata
Ġdita w
Ġdi adaptasi
ub i
P N
ĠHawa ii
ri but
Ġhelik opter
Ġku e
ĠKem erdekaan
ĠR em
pan si
ye o
si us
Ġmusik al
ani tia
th i
Ġbesar nya
Ġhubungan nya
Ġk i
ya ma
ĠL ay
film an
Ġtop ik
Ġs idang
O R
tem annya
B ill
ur ai
ek omunikasi
Ġpeng amatan
Ġper unggu
ep ang
Ġmengh ilang
Ġ6 00
Ġperk otaan
Al bum
t at
ĠB ambang
ĠLan ka
re a
seb elum
Ġmeng untungkan
Ġpas ang
iz inkan
ĠSej umlah
ĠFrancis co
ĠIs land
ro v
ĠAn th
Ġpro tes
ĠIS O
rig ht
is ang
ĠK end
akan an
ad an
ver s
ĠChristi an
ĠP C
ĠD ream
Ġla ga
ĠX i
Ġkek asih
ĠW ina
ro id
ĠMas ter
Ġko in
g ah
cel ona
u gian
ĠA KB
Ġh it
Ġsuk ar
Ġk otor
ĠT am
untu h
Ġse laku
Ġpeny erang
is hi
el o
ĠPet rus
E M
Ġter endah
ok h
Ġmenc uri
Ġgel andang
bang k
ĠM am
ĠN ic
Ġberk edudukan
ĠCh el
Ġseluruh nya
ep ungan
Ġbert entangan
Ġbert empur
esiden an
ulih kan
Ġh adapan
und track
ĠAr s
Ġbert ahap
Ġkakak nya
Ġpend atang
ĠS ut
ek erjakan
ĠKol onel
d ut
ĠM ing
wa yat
ore jo
Ġpenger tian
5 6
Î µ
yan mar
Ġkap ten
sek itar
hanc uran
I M
Ġdi izinkan
ĠS eg
unc ulan
Ġmon arki
ĠBro wn
Ġtaw aran
eng arkan
ĠK ang
ĠN ight
Ġ4 1
ĠG lobal
Ġmo yang
ĠF ern
ons ter
ĠUm ar
ĠContoh nya
Ġmer ancang
odi tas
M e
Ã ´
Ġkar et
li batan
Ġkek h
ĠWak tu
ari si
ĠC ent
Ġro m
Y ang
k ep
Ġbert anya
Ġd uta
ĠH end
ĠF inal
Ġker angka
Ġp aru
Ġber ak
Ġ19 19
rah am
Ġna ungan
Ġs ingkatan
Ġp ep
usi aan
und uran
ĠBrun ei
ĠY ugos
ĠKonstant inopel
Ġdi identifikasi
ĠS han
ĠA ut
el ia
ĠPer ubahan
ĠDa ftar
w ig
ĠH ay
ye ong
Ġso al
ĠT K
ri da
Ġdin obatkan
Ġdip ublikasikan
utu h
Ġca ir
f eksi
Ġc urah
9 4
ow o
Ġhasil nya
kl usif
Ġbersek olah
w ujud
ec tor
Ġint elek
al anya
Ġs aksi
Ġp ark
ĠK H
ĠAr m
gan da
ĠM ang
Ġnasi b
Ġter atas
ĠE mas
ver y
o se
Ġpenga jar
Ġt en
lah i
ĠC ara
ĠIs ti
M eng
ĠP un
emu di
Ġdik enakan
p ar
per atur
Ġsem pit
Ġdia jukan
Ġkeku asaannya
Ġpemba ca
Ġpotensi al
ant asi
ĠGr eg
ĠManaj emen
kan tor
ĠK ot
and y
Ġka bur
he im
Ġbeb an
ĠChir onom
Ã «
ĠA M
ĠJuni or
Ġyak in
ÅĤ aw
Ġ it
ĠPol itik
ĠP ag
Ġpeng ungsi
Ġ193 4
Ġmengg elar
amp ong
m un
ĠL eg
ĠSing el
S eri
Ġs ak
ĠR id
Ġ19 14
Ġbeg in
ĠIn fan
Ka bupaten
Ġpers yaratan
ĠT en
ĠR C
Ġalk ohol
G e
K ata
ĠMar x
p ool
Ġp l
t un
is ai
ola kan
Ġl engan
ĠKe giatan
Ġek onom
O L
Ġn g
Ġdil etakkan
R ub
ĠTim e
Ġpenga cara
Ġpew aris
W ilayah
ĠCh en
esu ai
ĠM andar
ĠB BC
tuk aran
ĠO li
ĠAn n
Ġmel anggar
Ġga jah
ĠKl ub
ya kan
Ġl edakan
ĠO per
aj ar
ada m
gi ri
Ġpen ampilannya
Ġ16 0
Ġberd ekatan
h um
Ġt ingkatan
ĠP emuda
ĠR an
aj ang
tok ol
K M
ĠJ enis
ĠAm ir
Ġkec antikan
b ir
j ong
Ġpenc aharian
zh ab
Ġmengaw ali
ĠA D
Ġsel eksi
ĠPen erbangan
teri or
ĠPem ain
Ġins inyur
ĠApp le
Ġv ir
Ġberm arkas
itt le
3 00
Ġk ambing
Ġse pat
Ġber do
ant arkan
r ed
ar ingan
ul e
iti si
B atas
T ube
ĠT uan
Ġhar fiah
ĠAr ya
es er
Ġpan en
ĠL um
Ġbelah an
Ġpeng aturan
ĠYugos lavia
S y
Ġter itori
ĠG old
ver se
de wa
In g
Ġkur un
l op
ĠP lat
ĠJ abatan
Ġtem annya
Ġ19 00
Ġgen etik
ĠSab tu
Ġmemec ahkan
Ġ amb
Ġt ambang
ĠM anda
Ġsa ins
Ġpun ah
sek olah
et s
ĠN ug
Ġkon si
An tha
Antha xia
do d
ĠSen in
tim bangan
Ġmon umen
e aksi
u w
ĠK in
ĠSt and
Ġko alisi
h elm
Ġri wayat
untu han
K es
Ġcok elat
Ġn ot
lar asi
u in
B i
t atus
ĠPer m
ĠAl ban
Ġjen jang
un ner
Ġke wajiban
oh or
Ġ193 2
Ġdikar unia
ard inal
v y
am ika
ur ch
ph en
Ġd o
ya ir
amb ridge
ĠAp ost
Ġromb ongan
Ġmem eluk
Ġmisi onaris
B r
Ġrum it
Ġmew ah
alih kan
Cyper us
Ġmen ju
Ġbah aya
Ġdit unjukkan
Ġberh arga
Ġdiba ca
Ġsemi per
ni at
Ġpemb icara
Ġkor upsi
ĠMal ik
ĠSam ar
Ñ ģ
ĠR od
ĠBanjar masin
T C
ung u
Ġjunior nya
b ahan
op uler
ot ball
Ġkurang nya
Ġayah andanya
Ġkr u
Ġmengk ritik
k eb
ĠBar celona
redi tasi
ĠYe ar
ist ol
Ġmemba las
p ons
it men
Ġkr istal
deb atan
ĠLeb anon
Ġse per
Ġberg elar
Ġmengan ut
Ġpem buka
Ġseh at
ĠRom an
en z
il in
Ġpeng iriman
ob oth
eks ual
Ġb o
Ġjumlah nya
ĠDep ok
199 9
k ul
Ġt ali
ĠW ei
ĠV III
Ġj emaat
á ¹
Ġkud eta
and uan
ĠF ord
Ġ4 3
anggap i
at angkan
em ah
Ġmen dominasi
Ġl angka
Ġr untuh
Ġf avorit
Ġdisi plin
ĠS A
ĠL ord
Ġmengor bit
ĠR on
anc ing
Ġmemperk irakan
wit ter
Ġg ul
20 15
s ar
Ġ ari
Ġd endam
ĠSen at
U D
ĠL embah
end ron
Ġpal su
it aris
er ai
Ġ5 1
5 3
s tan
si l
ĠD it
ij an
Chrys oboth
Chrysoboth ris
en ovasi
ĠJ apan
Se tiap
ĠPra bu
t ung
n ing
ĠJ ati
ĠAr ts
ĠCh ili
ĠPeng gunaan
ĠInfan teri
ĠO m
ĠB enteng
ĠSk y
ĠStudi o
A ir
Ġmen andakan
ĠM yanmar
Ġgalak si
Ġber sik
Ġter ancam
Ġpem eriksaan
ĠTe ater
ĠPan as
Ġper encanaan
Ġ amp
Ġmenga pa
Ġtrans misi
ĠKam ila
Ġpul uhan
m od
ĠAl f
D is
ga laman
il eri
ĠT emp
Ġje jak
ĠLi ve
ĠBro ad
ar uan
ol is
Ġperk iraan
Ġb or
ur is
Ġ; )
at ed
Ġl ihat
x y
Ġt enis
ĠJ ung
Ġdih ubungkan
Ġkol om
5 2
ĠG ame
ok e
ti t
Ġc on
bang sa
amb atan
entu h
Ġmenulis kan
R ho
y id
Ġb at
ĠS es
Ġber niat
ĠY osh
Ġdik unjungi
Ġpenja jahan
alian si
ĠD h
re en
Ġsu bur
ĠSeb aliknya
Ġmer asakan
Ġl ari
Ġsek retaris
Ġdem onstr
ĠJon es
Ġh angat
ĠH ow
angg ang
ĠTer minal
ĠLingk ungan
k ala
ur ung
ĠLu as
Ġlog o
P ar
Ġd olar
Ġmel edak
Ġberk unjung
Ġpol itisi
b ia
Ġm am
ĠP ekerja
and ria
Ġdih adap
ebut kan
s ai
di ki
ĠK oda
ĠB all
ĠD er
ĠS L
Ġl eher
ri tic
ĠPer se
ea u
Ġ4 7
Ġ192 4
v at
Ġdi inginkan
Ġmeng erjakan
ĠN y
ĠCa o
Ġmem uji
ĠSi ti
Ġf ac
ĠMes in
Ġmeny uruh
Ġs ultan
ĠCh o
Ġdih apus
ĠShang hai
ĠB uruh
tap a
Ġmew ujudkan
ĠChironom idae
ik kan
Ġput era
Ġseg men
ak o
ul ian
Ġmeng angkut
Ġterp enting
Ġsemiper airan
ĠB ani
ĠMen ara
Ġmer encanakan
esi an
ĠF ort
Ġc ak
Ġim igran
Ġken yataan
Res olusi
s ol
Ġpengh ormatan
ĠMa z
% ),
ĠP y
Ġg am
ĠGo od
Ġmenyimp ulkan
Ġ angkat
Ġkese jahteraan
ĠJ un
p irasi
ĠG uang
ĠDem ak
S umber
Ġplas tik
ĠMala ka
Ġmin oritas
Ġdiaw ali
C l
il er
Ġpen aklukan
Ġmela ju
Ġungg ulan
ĠC ons
ĠH ok
Ġte or
ĠPer n
ĠGr am
ĠJohn son
H ar
Ġf rom
tr y
Ġkon on
Ġj et
Ġmel uas
ust aka
Ġdok tor
ingg inya
Ġdiha diri
á º
Ġter ikat
ĠK ai
Ã ¸
Ġpers el
Ġpers ek
lasifikasi kan
am ik
ĠFer r
ĠN ep
Ġ19 17
Ġkes eti
rak tik
Ġkeda ulatan
Ġpen ilaian
Ġre al
ĠCek o
r ap
et ta
Ġpeng olahan
ĠPer u
elu aran
Ġdira ih
Ġtuk ang
Ġpang lima
ĠM ulai
Ġmeng elilingi
Ġmela tih
Ġbelak angan
ĠJ uan
ati ve
Ġ192 2
ĠSc ott
Ġspir itual
Ġ5 2
jak s
Ġdih itung
y ut
Ġ192 5
ĠYou Tube
Ġrump un
5 1
ĠB our
Ġg ur
ula an
ĠPi er
j ara
Ġw aris
ĠY i
ont ribusi
Ġpenting nya
Ġp onsel
ĠK ela
ĠKol omb
H ari
ĠC erita
ĠV illa
Ġdis ukai
ĠSam uel
Ġ192 7
Ġditan am
atri um
P G
Ġberk arier
ak er
sk erta
ĠNet work
C ontoh
ĠAn tar
ac a
M o
z uki
Ġp ay
ri o
ih ara
âĢ ¢
ĠFlor es
ĠM and
Ġ193 1
Ġ? "
Ġp osisinya
ain s
buk itan
alu asi
Ġdiper bolehkan
P C
Ġ à¤
ĠO ut
Ġper ilis
Ġ19 12
Ġak rab
Ġsep akat
ĠBengk ulu
ĠS or
uran si
Ġ4 6
ĠBos nia
er ation
el ing
ĠC at
ala gi
awat ir
ĠD ata
ĠGen eral
an si
ĠH ida
Ġsamp ah
Ġmenya jikan
Ġali as
Ġ emp
Ġr an
al d
Ġpela yan
ĠPem ilu
Ġrat ing
Ġpem er
Ġpener imaan
y er
em is
Ġmen ari
ĠKat edral
Ġoff ice
B andar
Ġpen dah
ĠCol umbia
ĠBer bagai
Ġdikarunia i
Ġop osisi
Ġbersa lah
T i
ĠR y
ĠL ew
os ari
Ġberj anji
Ġberl ebihan
ersi hkan
H an
Å Ł
ar do
ĠB ima
eb ook
ĠL ar
tr as
li en
Ġdis ahkan
em ikian
si sa
Ġl um
Ġs alib
al inya
qu es
ask ar
ster dam
ĠP ok
osi t
Ġkes ultanan
enc y
risten an
ĠH utan
end ungan
b ra
Ġp aksa
Ġro hani
C atatan
Ġs olusi
dod endron
5 7
Ġc ita
Ġmet al
Ġmit os
lad esh
Ġment al
Ġpad anya
ĠM ill
Ġb asket
ĠJ ay
th er
Ġberh adapan
Ġmengeks p
ur ik
Ġketi mbang
inc ian
P ela
er eng
Ġj enazah
ĠH erman
Ġmeny us
ĠAk tris
Ġken aikan
erm inkan
wa ys
lat ar
Ġman faat
ĠKons er
Ġpsik ologi
os an
Ġkons umsi
ĠAmeri ca
Ġd ada
Ġper anan
Ġmem f
ĠÂ ±
ĠLap angan
R S
Ġp us
ot ensi
angk ai
ĠMar c
Ġarke ologi
ĠLomb ok
% )
p ha
Ġset inggi
C D
Ġke w
ĠHein rich
Ġdi usulkan
ĠK ah
Pro gram
Ġgra v
Ġmen olong
ĠH ard
ant ra
Ġdib atalkan
" :
H e
Ġka wan
ĠNov el
Ġbern yanyi
w art
Ġpeng urus
pa cara
ĠLab or
ĠS H
ĠJ ab
Ġsek adar
od era
ĠV o
ĠKenn edy
ar ahan
ĠSosial is
Ġmengaw asi
Rho dodendron
ung utan
eb es
Ġg ender
Ġas osiasi
Ġ192 6
evi ew
m it
enc i
Ġmaksi mal
Ġt ongk
Ġmeny atukan
j enis
ĠIn di
Ġ4 9
em ik
ic al
ĠKe diri
Ġpemb antu
ĠStudi os
ĠFo und
u ch
Ġker ugian
ingg uan
em ani
ĠC entral
est ra
Ġdisk usi
M on
W alaupun
t unya
ep an
b aran
Ġl ong
ĠC EO
ep os
Ġpemb akaran
ĠUni on
S emua
ĠT otal
Ġperm ulaan
Ġintelek tual
ont alo
Ġdipen uhi
5 4
ent ak
Ġpro sedur
eli jen
Ġpelaks ana
ĠRef ormasi
Ġf ir
Ġla ju
las h
iter ia
Ġhabit at
Ġmen unjang
ĠS trat
ĠG og
Ġberm akna
b r
Ġmem otong
Ġlam anya
ĠEr n
f al
ĠAtl antik
k ada
ad er
ĠDhar ma
ĠD ek
war sa
da d
e kan
Ġp adang
Ġak urat
Ġ192 3
ĠC ak
Ġdik endalikan
Ġdew i
c ita
Ġp i
Ġb angkit
Ġterd engar
Ġtangga pan
Aster aceae
ak ati
ing u
Ġla utan
fr ed
Ġrep ublik
Kep ala
Ġn ir
Ġdok trin
Ġpublik asi
Ġlib eral
ĠM all
Ġmem pertimbangkan
ĠMad rasah
R a
Ġa wan
Ġberk arya
erj asama
Ġmen ud
ĠK re
ra x
tan da
ula ta
Ġmemb iarkan
ĠNor man
ga p
ĠS atuan
Ġber sedia
eli diki
Ġmilik nya
Ġkepri badian
ini um
Ġmember inya
ole on
Aster ales
ab e
Ġsem asa
ĠBel l
ĠPeri ode
ia i
et on
ĠY ah
or g
ob o
Ġdi wak
os er
amp ungan
Ġkebang saan
E D
h ati
Ġb an
Ġse ter
ch an
Ġpeny elidikan
egi atan
Ġjend ela
Ġber lawanan
Ġh at
ungg ulan
m ud
Ä ±
Ġpeng gabungan
Ġmemba wanya
Ġprak tis
ĠGirl s
ing rat
Ġmeng ukur
Ġser at
Ã© n
Ġcamp ur
la g
Ġp ujian
isi t
Ġmel etus
Ġdit ingkatkan
ĠAsi an
Ġdibu barkan
Ġdi undang
um o
uk ung
Ġar g
an ja
Ã¼ n
Ġmen dalam
Ġasal nya
Ber bagai
um as
ĠJ en
Ġkar enanya
Ġdis usul
ese arch
Ġp eg
od or
Ġkons tan
Ġpemba yaran
ĠPat rick
Ġr entang
Ã© e
Ġpid ato
ĠAndr ew
ĠApost olik
il ton
ĠP impinan
ĠLaks amana
Ġtr uk
Ġb adai
ĠS U
Ġg ar
ĠSh ar
us ung
Ġpendar atan
C o
T ak
Ġke ahlian
Ġpeng embang
aw ar
Ġketer libatan
Ġpar oki
gi e
lak uan
ĠIs mail
Ġminim al
f ak
dis k
Ġberc erita
E L
ĠHak im
Ġs osi
Ġmeny i
Ġefisi en
ĠIn dian
ew enang
Ġme yakini
Ġjam ur
Ġdiam eter
T S
Ġdik en
ĠAm sterdam
Ġdar ing
ĠC in
lan c
ĠOt to
Ġpendidikan nya
ĠT un
Ġo ut
Ġmemper hatikan
ĠKep olisian
utu pi
ĠD ingin
Ġg ambaran
ati c
Ġ8 00
ĠPol ri
ĠOs car
evel op
onge Bob
Ġmen ew
ĠB any
ĠMana do
e ed
as tian
Ġpemb unuh
Ġbert empat
Ġketer angan
ĠLi ver
ater ai
el us
ĠT em
emb aran
Ġke indahan
ĠAb raham
ecuali an
Ġmen anam
Ġper filman
st on
Ġpeda laman
Ġberta juk
ter ol
ongk ar
Ġkeman usiaan
ĠD rama
ĠE do
ĠArth ur
Ġdil indungi
yata annya
ĠEf ek
Ġs tu
ĠD uta
Ġr amai
ĠW ik
ĠKe dokteran
ĠX I
Ġper tukaran
Ġsek under
ĠAk tor
J ohn
ĠBang ladesh
ĠAz erba
Ġdi le
ĠR uang
h in
ĠM angk
usi anya
ĠBa ik
ĠKu il
b atasan
c as
oc al
Ġmen ilai
Ġpe tualangan
ĠK n
uj ukan
me dia
ord an
ĠMah a
R ep
ma e
ĠPr am
anta ian
Ġneg aranya
ĠVen esia
Ġtab ung
Ġt ar
Ġa ut
Ġja jaran
Ġme di
ĠLe o
ro t
Ġpen asihat
Ġ5 3
ĠBanyu wangi
ĠP ost
Ġterl epas
ĠChel sea
Ġber awal
Ġ6 4
ĠKomun itas
G o
Ġg anti
Ġpem asaran
Ġdi artikan
Ġ11 0
Ġradi kal
in ess
ra f
ĠAn ne
ĠBr ah
Ġalam at
ĠJac kson
Ġkre atif
Ġp iano
Ġsir kuit
Ġpark ir
ĠB unga
Ġpeng ukuran
ĠTe am
Ġkedi aman
s c
ĠA er
Ġmeng ikat
Ġman di
Per ang
ĠB antu
Ġn ar
Ġmusik nya
Ġs ore
ĠK eber
Ġdiper ankan
iaya an
ĠPat ri
Ġmenew askan
5 9
A ku
ĠT et
U H
ĠR ot
ĠAr mada
ĠAm bon
ĠC re
o tesis
ĠIn f
ĠAzerba ijan
ĠW id
Ġmenc erminkan
Ġatas nya
Rub iaceae
G B
Ġ uk
Ġ aliansi
ĠS uh
Ġter asa
Ġsep asang
Ġkomp ilasi
ich i
ĠT au
Ġf osil
ĠMin ahasa
gerak kan
Ġdat ar
ĠMosk wa
p asar
ĠKu tai
ĠB eta
tian ales
ĠMah kota
ĠGor ontalo
c epat
Ġc omp
od in
ĠKor ps
gen re
Ġide ologi
Ġtem peratur
T M
Ġtidak lah
Ġwak tunya
arus kan
Gen tianales
ĠB lok
ek ar
Ġp ita
ĠR ev
Ġberk ontribusi
ig n
Ġdi in
es se
ĠP ed
ĠMar inir
adi r
sch e
ĠM uara
Ġdis ek
Ġdem okrat
Ġ192 1
ĠIb unya
Ġcer das
Ġked elapan
ht t
Ġberakhir nya
ĠWh ite
s yah
Ø§ Ø
ĠDo ug
ĠLib ya
f u
ĠT ua
ĠR esearch
ĠFo otball
Ġh e
ĠN ga
Ġkot amadya
u y
Ġpen al
Ġbi cara
ons truksi
Ġ ãģ
ĠA ch
ing en
Ġket ak
Ġjalan an
Ġmem ori
las s
Ġ 91
Ġb angun
ĠT y
ĠPer empuan
Ġsen ilai
Ġpenga jaran
Ġpenangk apan
Ġt adi
ada si
ĠS ipil
ĠP P
Ġper debatan
Ġeks trak
199 8
ĠTip e
Ã ª
Ġt enang
end um
uta an
Ġkontroversi al
Ġmemp ro
bur y
bangk itkan
d inal
eng ku
Ġja zz
dik asi
apai an
Ġastr onomi
M es
ĠIn dah
Ġdin as
Ã¡ s
tre am
Ð¾ Ð
Ġmen embus
Ġtran sisi
q i
ĠM A
Ġal ur
S tar
c t
Ġpar as
ĠH art
usi k
Ġ13 0
Ġtugas nya
Ġf os
ĠFlor ida
ĠD I
ma u
ĠAs ing
ĠDem ikian
m ara
ĠOr de
Ï ĥ
ĠG h
ĠW arn
ow i
Ġm itra
uk o
Ġdit ak
Ġ qu
ang dut
da ft
amb ung
Ġmengh argai
S an
t z
Ġketi ganya
Ġpop ularitas
ĠMak am
B ar
Ġdip romosikan
pa ui
Ġpers atuan
ĠL t
Ġa la
Ġ19 13
ĠJo e
ĠSar jana
Ġber api
ĠL y
C ar
m es
Ġt embaga
ĠB un
ĠSamud era
Ġter atur
ĠM end
o es
p el
ĠB egitu
Ġmemb ran
Ġtur unan
Ġas asi
ĠCh art
tik al
ĠNap oleon
Ġh amil
Ġberp enduduk
Ġdialam i
E m
ĠÂ £
Ġlar angan
Ġsel uler
ĠC ra
ĠDu bai
ĠM alam
anj urkan
ab le
Ġberk ualitas
Ġsal inan
B uku
v ania
ot op
ist ri
ĠAp abila
Ġkecil nya
Ġpenc ipta
Ġtep ung
h usus
ĠJ oko
Mer eka
en burg
Ġsep utar
ĠJ ong
ili un
ĠOr do
anggota an
Ġt ampilan
il o
ĠM ajalah
Ġpah am
li ght
ĠSer angan
en ta
ga de
Ġmeng as
Ġkebangk itan
p al
v ard
Ġk rom
ĠK M
Ġpel uang
Ġk redit
ĠA B
bu d
ul ingkan
ĠWil helm
Ġmem uncak
uj ur
C om
ro c
ĠC ik
Ġsamp el
ĠT own
im bang
ĠR ey
Ġperb andingan
ĠMag elang
y in
Ġ 93
Ġg ro
ly n
uga an
b es
r or
se udo
ĠG as
ĠPer dagangan
Ġmemb akar
Ġperi kanan
AN G
Bill board
b entuk
ĠAn di
int anya
Ġkh awatir
S ungai
Ġmen utupi
ti um
ĠT ony
Ġmeng ob
ĠG an
ag ari
ĠVen ez
20 16
Ġseg ar
Ġseter usnya
ĠA wal
ĠF asilitas
Ġw ww
Ġkar go
Ġre alitas
eles aian
Ġlem but
ek i
Ġ19 10
Ġbentuk nya
Ġditaw arkan
o ut
Ġdi sep
is ma
ĠH id
Ġc itra
b ro
Ġmengh i
Ġtel inga
ment asi
ĠBur ung
ĠLiver pool
ĠB angk
Ġh ulu
imb ingan
igur asi
la kan
ĠK ardinal
Ġf inan
Ġper maisuri
ĠPer maisuri
ĠSamar inda
N egara
t anya
Ġp ing
ĠG ajah
Ġdit embak
ĠAb dur
anak nya
ĠKomun ikasi
Ġkrim inal
4 00
b ilitas
Ġm ain
ĠP oso
anj ur
ĠSa ch
atur al
ĠAleks ander
Ġbers tatus
ĠFor ce
Ġeksp resi
K em
Ġber edar
Ġku asa
Ġkontes tan
Ġpinggi r
Ġmempering ati
A H
Ġk olaborasi
ĠKa dipaten
Ġspons or
isa u
ve y
s ing
ĠK ami
orm on
ĠZ a
Ġpetern akan
erik sa
Ġpemb angkit
lor asi
ĠP re
ĠA udi
ĠK ita
ag en
ĠMong olia
Ġf igur
ĠYeh uda
Ġbon eka
ian us
bur kan
K u
ist is
Ġeks pansi
ĠSqu are
Ġkom oditas
ĠSisi lia
Ġter nama
ĠK le
up an
ĠE mp
ĠIs landia
Ġsur ga
ida si
tern al
Ġnya man
ĠSri wijaya
Ġbern ilai
ĠN ig
Ġba wahan
ĠSl ov
Ġd ini
Ġb ant
ĠT j
Ġc ap
ĠE ric
Ġpanjang nya
Ġeks klusif
ĠMa ch
ĠSt ate
Ġdic eritakan
Ġpenyer angan
K omp
ĠC our
ĠN eptunus
ĠKont es
ĠKolomb ia
ara g
angg ul
ĠY as
S m
ya d
ĠK evin
Ġper oleh
rag men
Ġreligi us
ada annya
si han
Ġro bot
Per usahaan
Ġdid esain
ĠBat am
ĠPember ontakan
Ġkonsi sten
er das
il ya
ĠP aku
Ġor i
ĠMar t
ĠJ ing
ĠR ac
ĠL umpur
ĠPro duksi
Ġfinal is
Ġid entik
Ke uskupan
Ġterm uda
e wa
ĠI A
aman kan
ĠCh ap
Ġv isi
S am
ari ah
tan i
Ġ ê
od on
Ġga wang
ĠJ eff
eka d
Ġbu at
Ġbus ana
R o
r ang
ĠR ektor
sa udara
Ġsetelah nya
alon kan
Ġhor or
Ġg o
ĠMod ern
Ġkonvensi onal
Ġm al
ba gaimana
eb o
ĠR ek
Ġmengam ati
ĠP anda
Ġmem adai
ĠR ol
id or
Ġbek erjasama
int ar
gr aman
Ġtel ekomunikasi
K or
ĠHab ib
ĠPah lawan
o alan
ĠS yam
Ġr agam
int ahkan
itam in
ĠFound ation
y un
os ter
eri ck
ec tion
Ġdim uat
angga pan
Ġman apun
Ġperjalan annya
ĠS por
ĠA U
ti us
Ġmeny em
Ġpela yaran
Ġberkel anjutan
P L
ah bis
ĠK ala
Ġ" )
Ġsepat u
S ch
ĠC up
Ġprim er
ES CO
Ġungg ul
Ġp isang
Ġmenyam but
or ia
esi k
Ġperlu asan
Ġpenyi aran
ĠOx ford
p tis
anj ikan
Ġ5 4
rah man
N a
Ġm ad
Ġt ingginya
ĠJ az
id an
ĠG lob
Ġmeningkat nya
ĠS wasta
ĠX u
Ġperkembangan nya
ĠM ov
ĠUr usan
Ġs umur
Ġkep olisian
c l
Ġr er
se bagai
Ġw ewenang
Ġp uc
Ġberp utar
itra an
antum kan
t eman
Ġd ak
ĠT okoh
ĠC am
ĠH ung
ĠDir ektorat
pres s
Ġaudi o
M el
S pesies
r ist
Ù ĩ
Ġk ant
op or
ĠO pen
k ali
Ġc oba
C uc
ĠD ag
ir at
Ġmember ontak
Ġmisteri us
Ġr awa
Ġc el
Ġsur vei
Ġnuk le
evelop ment
s urat
ada lah
Ġw ar
Ġmeny eber
ni ght
b intang
Ġs aran
ia ga
ĠF air
ĠPro ject
ĠPem impin
Ġpersek utuan
Ġmen onton
Ġber ujung
ĠR ub
ĠPr ess
alih an
16 6
mur id
Ġsukar ela
Ġditu duh
Ġterbentuk nya
Ġot onomi
p op
ĠJ uara
ay at
ak apan
z il
Ñ Ĥ
Ġp utus
ut aran
om etri
ĠMa ur
ĠSte phen
Ġdiber lakukan
Ġbas ah
Ġbi ografi
Ġpen jah
Ġpem isahan
Ġdis esuaikan
Ġdiak ses
Ġpernikahan nya
ĠAdministr asi
Ġ ukur
eb elah
Ġuni versal
i yah
Ġmengh itung
ĠKon sili
ĠKen ya
Ġsay uran
encan anya
A t
ĠR io
ha o
Ġdih ormati
ĠSing le
ĠS uka
ik m
Ġberk omunikasi
Ġpert ambangan
Ġdip utar
emp el
ĠAlban ia
g at
Ġn ow
Ġ5 7
Ġters usun
ĠM TV
ingk irkan
ac i
ĠSte ve
w er
ĠHe art
Ġkos m
Ġb ul
ĠH im
Ġmenga b
ĠSing h
etus an
Ġpengikut nya
Musi m
bour ne
p ing
ĠA qu
Ġper bukitan
do s
ĠH idup
ant un
Ġ5 6
Ġberp asangan
Ġrom antis
L ahir
Ġmeny utradarai
Ġklor ida
si an
ĠB lo
oni f
Ġsur ya
T anggal
f sir
Ġ utuh
Ġj ati
Ġdik on
Ġkom ite
Ġberte patan
Ġsej ati
ĠCh urch
An d
ĠTra disi
p ret
Ġp lay
ĠH aw
ĠAr j
ov o
ĠPr emi
dus eri
ĠFr ont
K al
ya w
es okan
ĠD ukuh
ĠC ib
Ġg al
Ġg itaris
ip edia
Ġper timbangan
ĠD ib
ĠL ud
wa i
Ġdin ik
ĠSt alin
tag onis
R C
Ġ usah
Ġl antas
Ġ19 16
ĠAd at
Ġperilis an
G I
o te
ĠH ist
ĠIsti mewa
Ġp elar
si fat
ĠG ay
ĠKe jadian
Ing gris
Ġdi mas
emb alinya
ver n
ki e
ĠSe iring
uc e
o use
y anto
ĠB ib
ĠN u
Ġ19 11
Ġdik erjakan
ĠMadi un
ĠP ul
Ġmem elihara
imp un
asa warsa
ĠW arga
ĠW arisan
isk inan
Ġmenyi apkan
un try
ĠZ i
sebelum nya
E p
ĠC y
ĠW ol
Ġdik embalikan
Ġberk olaborasi
ĠSp ace
ĠBe at
ĠServ ice
S A
ĠM ike
Ġpen utur
Ġser agam
idup kan
g ani
ĠS I
Ġ190 5
ĠGre at
Ġelek tro
ej utkan
F or
s b
t il
ĠT ran
Ġg and
s ell
Ġl ine
ĠG ard
ad en
Ġbers uku
Ġmend esak
Ġsal ju
Ġhid ung
Ġdip ec
Ġkap an
ĠX X
Ġmasuk nya
ĠHar ris
Ġâ Ĥ
ĠP ower
ant es
ĠB ond
ĠC il
Ġmel emp
ei ch
Ġtrans aksi
Ġpersa ingan
v ik
Ġmenj amin
ĠHida yat
ĠT witter
ĠJ iang
Ġdid uduki
sh ip
ĠD ri
ĠJ os
Ġg ran
Ġpenc iptaan
ĠH ip
Ġmel ukis
ĠNep al
id in
umb angan
Ġsemi final
y asan
or ma
yl l
Ġil egal
ĠTay lor
t ara
en te
ĠKeb ijakan
Ġdial og
ĠLuk as
endek iawan
egr adasi
c or
g ement
m m
Ġkom isi
ĠLt d
Ġdiper intahkan
om et
ĠC op
ĠR ider
ĠBa it
K at
am ida
si lah
Ġini si
ĠMari e
Ġmenju arai
ĠP ir
Ġba b
Ġdip ahami
ĠSy arif
Ġketer ampilan
it el
Ġl im
ĠSu ara
Ġdidapat kan
Ġgrav itasi
D on
u ela
Ġmem anjang
et ensi
Ġc ipta
Ġberla tih
ĠBug is
W e
Ġs op
Ġse but
Ġf em
Ġdik umpulkan
ĠSip rus
di m
us ta
ĠH onda
199 7
ĠVirg inia
di p
ĠA vi
Ġmemb atalkan
Ġs ihir
ga kan
ĠD ew
ĠW arna
ĠKa um
da y
Ġber buru
os al
Ġmenyer bu
Ġmemas ak
Ġko ordin
B e
M u
ĠM um
asar ana
Ġs andi
ĠV atikan
ulis an
SM P
Ġdidi stribusikan
Ġdipert ahankan
ĠR encana
ĠU I
ch o
kar yanya
ĠN ah
Ġdik u
Ġmenc intai
Ġjangka uan
W il
ov ision
Ġterl aris
Ġkerus uhan
Ġd omba
si te
Ġper gantian
ant ing
Ġdiper luas
ĠEst onia
Ġd asawarsa
ĠB ela
om on
ĠE disi
ĠSan skerta
ĠTech n
Ġide al
Ġpersel isihan
S uku
ĠP uncak
wajib kan
J alan
ik ar
Ä į
ĠT aj
umum an
ĠSep anjang
Ã© mon
ĠSt andar
C I
j umlah
f eld
Ġik on
Ġperp anjangan
Ġpip a
Ġp h
ĠS lam
Ġter api
ĠB apa
Ġpeng amat
Ġkel iling
Ġlingk up
ĠUN ESCO
gro und
R umah
l ebih
ĠA ur
ĠM isi
ia gam
ĠY aman
Ġ7 00
Ġmelam paui
K ed
Ġh ib
ĠR ang
ot bah
engk eta
U I
ĠP lus
Ġkes embilan
Ġberpen galaman
ĠMoh ammad
ĠBoh emia
v ir
ĠK ode
Ġh antu
Ġneg osiasi
Ġd or
ĠP angkalan
do man
Ġkes amaan
Ġlar ut
ĠAng el
ĠJan e
Ġberm ukim
er as
op ogon
ens in
Ġkan al
A h
w ich
si ran
Ġkod epos
Ġmem ohon
ĠI van
Ġj angan
ĠJ KT
ĠL ight
Ġw angsa
ĠSeri e
Pert empuran
t ak
in do
ĠPer damaian
Ġ8 5
ĠÃ ī
Ġl an
Ġl anjutan
Ġpac u
Ġfinan sial
S aya
os om
kand ung
ĠSton e
Ġse olah
ĠB la
Ġkr iteria
or es
Ġber ik
ĠB alik
ut ang
Ġsa wit
Ġmener us
tian ak
oni um
a wan
× Ļ
em o
Ġh as
Ġap artemen
ap as
Ġsen sor
Ġbers angkutan
ĠCom te
Ġsh ow
Ù Ĵ
ant s
Ġseb erang
ĠSeri es
Ġgra fis
Ġrum us
in ari
Ġ17 0
Ġs emb
bu ahan
aks in
Ġkuan tum
Ġh um
Ġbar unya
urik uler
ĠD ol
ĠEur ovision
Ġastr onom
Ġdi lay
ĠBr and
Ġ9 5
Ġna ga
Ġkemampuan nya
eng er
ĠAr n
Ġmend engarkan
itur gi
v ing
ot s
Ġak al
Ġkep alanya
ĠIs kan
Ġmenj atuhkan
k ini
ĠG and
Ġkl ip
T a
Ù Ĳ
em asan
adi s
f ah
y et
lam bat
ond er
Pro vinsi
Ġleg end
Ġ ing
Ġdi oksida
ĠA N
ĠI N
et ts
ĠJ at
Ġ ol
da p
el im
ĠK K
Ġnit rogen
M et
ĠS r
Ġl ereng
ĠW ong
ĠRC TI
terol ophia
ĠC O
Ġkar dinal
Ġdib akar
ov en
Ġram ah
Ġmeng ec
ĠPro duk
Am eri
Ġ5 9
M yc
k omp
gi o
imb ah
D ir
r ek
al th
20 19
Ġop tik
ĠM S
ent s
Ġya yasan
ĠDi dirikan
Ġ14 0
Ġli pat
J epang
ul f
uncul kan
si da
Ġtim bal
Ġam al
ĠTerl etak
Ġm ingguan
Ġp la
ons entrasi
mp angan
ĠAnd re
t inggi
Ġs entral
Ġsa lat
Ġmel etakkan
ĠMe ga
yaw arah
ĠR ab
ly mp
x on
Ġber gaya
ord ania
c akan
o an
s ung
Ġn atrium
ug o
za ir
val eri
Ġk ubah
is olasi
Ġin spirasi
imp ah
Ġberp isah
ĠTr in
Ġne ur
E A
S ing
ĠS ard
ĠO S
Ġker aj
ĠAnd roid
S ed
ĠP ati
Ġsamp ul
ĠWil son
bo x
k em
k ut
ti gasi
emb ara
ari um
ĠMar oko
amer kan
in ju
tu t
ep alai
Ġsep upu
Ġmend efinisikan
ĠBlu e
ĠB angka
ĠH is
Mas jid
Ġkese imbangan
s alam
Ġb ara
jam in
ungk apan
jata an
ĠBo ok
Ġpenghasil an
Î »
Ġmer es
Ġjatuh nya
ĠAf gan
u er
ur ni
ĠDemokrat ik
Ġsil inder
Ġdi hi
is aris
Ġte gas
und ingan
ĠLay anan
ĠA i
Ġpro to
ĠPut eri
d ata
t eks
Ġp ikir
Ġb uti
ĠB und
Ġf er
Ġalum ni
d ong
Ġb atik
elompok kan
ĠA ks
Ġtaw ar
ar inya
ĠT ugas
ĠCh eng
lahir annya
I t
ĠL ov
ĠBu ah
lih atan
ĠWh it
in u
las emen
al angi
ĠP ep
ĠR yan
ĠIn don
ĠMark us
ĠRob in
B ers
ĠK RL
ĠIn form
Ġser ver
ili asi
Ġb aterai
ser v
eg ahan
Ġd ugaan
ĠEn d
Ġment ah
Ġ usianya
per s
ĠE t
Ġ190 8
Ġdibu ang
ĠNAS A
Ġmala ikat
Ġsep ur
ĠZ ain
Ġber eaksi
ĠD J
Ġmeny elidiki
ca bang
Ġmenud uh
Ġdi ucapkan
ĠT hi
Ġn an
ĠN T
angsung kan
ender ungan
Ġver tikal
in jau
Ġf e
id es
Ġak ademi
ĠBos ton
Ġketak utan
ja wab
Ġpem ungutan
ĠTan pa
Ġjawa ban
ĠM I
ĠB ahan
ell ow
c ast
ĠB M
Ġmem u
form ula
epat nya
Ġbarang ay
ĠSD N
now iki
Ð º
ent an
Ġkar tun
adi k
Cuc ur
Ġdi gabungkan
di sebut
ti g
uk aan
Ġmeng ulang
ĠC ambridge
Ġc em
Se orang
aris kan
Ġ0 1
Ġkur ikulum
Ġpemro graman
Ġnow iki
Ġpem ilih
Ġmagn et
eskrip si
inj al
Ġmen s
ĠD ef
im anya
ĠN askah
diri an
Ġmengh apus
ĠSumat era
Ġl etusan
Ġpen emu
Ġr ec
ĠAr ch
ĠBer beda
ast is
l eh
r est
Ġs kuat
Ġber man
ĠLa ur
arik sa
ĠMet ropolitan
Ġberdamp ak
ĠDoug las
Ġker aton
Ġdia jarkan
Ġdiper sembahkan
um entasi
ĠK yai
per usahaan
ed es
Ġpers oalan
ĠMandar in
ĠU ma
ĠâĢ ¦
Ġhektar e
8 00
b en
k ins
yan yian
ĠPh il
B o
Ġna f
e te
n en
Ġdi buktikan
Ġl intasan
ĠN BA
ĠDesa in
ĠPeng etahuan
ĠLi ang
ĠOs aka
elih araan
Ġmengarah kan
Ġmeng andalkan
ÃŃ a
ĠBill board
embunyi kan
f il
Ġke lap
ĠR ap
Ġ19 15
19 0
Ġkew enangan
v ok
ĠS it
Ġg ram
bit ales
ĠTer buka
ĠProf esor
M asa
ĠB ari
Ġmeng urus
pa u
Begonia ceae
Ġny aris
ĠSci ence
b il
c es
Cucur bitales
s ul
Ġke lahirannya
Ġa f
Ġmaj elis
c s
Ġot onom
iring i
Ġdiwak ili
S in
al un
ĠC ru
ĠAg us
Ġterk ecil
pe do
ĠNag ari
P O
h ian
Ġmeng antarkan
isi r
if ic
Ġc iptaan
ĠComm un
Ġ lah
ter al
ĠL ip
ĠX in
rof esi
s um
Ġs un
ĠA yu
ap uskan
ĠT amb
Ġf i
Ġg urun
ĠY ong
Ġpener apan
ĠW isata
ĠPr ak
Ac mae
Acmae odera
W ak
Ġd etail
at um
Ġb apak
Ġmem us
Ġmem atikan
ont al
Ġtik us
ĠM atius
ĠG ong
asa d
ne o
Ġadi pati
Ġtongk at
T ra
h op
Ġm odifikasi
Ġb arisan
ĠJ upiter
ĠAl ja
Ġ8 6
ca uan
Ġst atistik
Ġperempuan nya
ĠCl ark
ĠFac ebook
Ġditu turkan
engk ung
ĠPon tianak
Ġeksperim en
ĠP askah
ungk us
ĠSal eh
elan jaan
K o
em akmuran
or ter
Ġberk om
masa lah
N o
Ġc ar
Ġtangan nya
H a
r akan
Ġliter atur
Ġb asa
etu lan
Ġkeraj inan
6 00
ĠS arah
ĠI C
arik h
ĠTelevisi on
ĠMer deka
Ġg oreng
angan nya
ĠW en
ĠDip onegoro
ĠK w
ĠK ad
20 17
Ġad il
p lay
ĠM ain
ara u
op ot
ind rom
fa atan
ĠCent re
ĠKoda m
H O
Ġs or
Ġnasional is
ĠTe ori
atuh i
Ġgereja wi
omba an
Ġl ip
ĠL em
ĠG aya
Ġpenal ti
P as
ĠB ud
ĠF M
ĠP rop
Ġmel ingk
ov an
Ġoper a
Ġl o
ira un
Ġagr egat
Ġkonser vatif
ĠJac ob
Ġke unggulan
ĠAb b
p et
ĠP M
Ġmem ukul
udah kan
Ġpemb elian
ĠKr im
dow n
e ch
ur ia
angan an
Ø ¯
ĠG elar
ric on
ĠH un
las t
Ġkem iskinan
ĠMar sh
utan an
Pem ilihan
ĠHar vard
ĠH ilir
Ġpeny elesaian
bum en
ĠSp ongeBob
ej ut
tan bul
Ġ3 166
ĠMassa chus
h id
ur ian
ĠMel bourne
ĠFad il
f ri
in as
Ġber kantor
ĠM gr
ĠU lama
ĠJ end
Ġdik lasifikasikan
Ġberk ec
ĠPol it
Ġhi asan
Ġstatus nya
Eric aceae
ĠD ja
Ġkom entar
Ġdija bat
k atan
p utra
ĠH ati
tif ikat
Ġproduk tif
Ġpuncak nya
Ġmembu juk
Ġbung su
a cara
u ba
Ġs antri
al ongan
es na
Ġke jaya
Ġen titas
ĠVenez uela
Ġter ima
re jo
Ġpan ah
ĠFerr ari
Ġusah anya
B erb
p art
int o
Ġtan am
Ġpemb inaan
Ġterc antum
ĠTa urat
ĠFran sis
ĠGlob e
Ġke anggotaan
ing er
ĠM eja
te c
Ġber genre
Ġtim nas
Ġdiper intah
Ġkelap aran
j akan
ĠNa ga
ĠCon n
Ġdel egasi
G A
ĠK ra
ĠB il
uk ar
Ġr et
ĠN ich
ĠH ampir
Ġ5 8
ĠUni verse
p apan
ĠS akti
Ġber macam
us uhan
ap asitas
Ġpeng ujian
imb ing
ulih an
ĠG l
Ġbe asiswa
Ġpendah ulunya
is inya
ĠD ra
Ġdip elajari
Ġperm ohonan
Ġk lien
ba kan
ĠL ev
itu ania
og e
ĠKon vensi
Ġem isi
Mus eum
Kel urahan
ĠV egas
oc era
Ġter or
Ġpas aran
ill es
Ġpad uan
Ġs umbangan
eka yasa
ĠY our
uan sa
Ġdir asakan
Ġ6 2
f ia
Ġn ol
ĠMer upakan
Ã© r
Ġberdo a
in ik
ĠD ist
ĠJ ohor
ensi tas
emen ang
Ġsed emikian
ĠKon sep
ĠPas angan
Ġmay at
ĠSara wak
Y o
t os
ĠT ong
Ġn ark
ub ungi
Ġpem akaian
19 93
Ġ9 9
omb ak
Ġmet ropolitan
ĠFranc e
Ġtah apan
Ġdire but
A walnya
Ï ħ
ĠB A
ĠT re
Ġl isan
ĠH arapan
ĠGar uda
Ġdilay ani
at ika
as ari
ensi al
Ġ190 6
pro duk
P artai
S ar
Ġmen eliti
Ġper isai
ot te
Ġwa bah
Ġli bur
B intang
e on
por a
Ġperl engkapan
Ġlegend aris
emb an
ĠJo han
Ġelek t
inter aksi
en h
Ġser ikat
Ġbi ologis
Ï Ģ
do do
Ġmeng amankan
pro gram
ĠAlja zair
H ingga
da g
im ah
Ġnet ral
I r
k lamasi
Ġ ent
Ġd on
asi la
ra wa
Ġpon dok
i es
Ġdi iringi
Ġke adilan
ĠP tol
ĠK ha
ĠM akanan
ch y
ĠPer l
ĠLew is
Ġdiken ali
Ġmel engkapi
c ul
Ġkos tum
Ġm impi
esk op
ĠSt ock
ĠNug ini
T iga
b oh
n on
Ġt hat
ĠD eli
Ġsosial is
ĠT emb
op sis
Ġker bau
Ġ7 2
bul uh
ĠSi do
sat ria
oph er
ĠToy ota
s ub
v itas
Ġs ilang
Ġb imbingan
ĠG ua
op us
ĠEl ek
arm asi
Ġberc erai
ĠSach sen
t el
uti pan
eter an
ĠPa gi
Ġmam alia
es te
ter utama
Ġr empah
Ġdise lamatkan
ĠA FC
Ġg u
Ġberp rofesi
enc es
ustr asi
men erus
ris e
ĠSp ec
up ang
ĠUni versal
ĠPr inc
ci al
omb inasi
Ġperb elanjaan
ĠArj una
al el
ti mal
ir sa
Ġg injal
ĠG all
ud aranya
omy ia
Ä ĥ
Ġt ump
Ġr enang
duk tor
ber ger
Ġdila lui
Ġtun duk
G unung
M at
an e
Ġin tegr
Ġmem ulihkan
Ġterk ejut
husus kan
ap ar
ĠB ac
ĠD un
ĠAl an
Ġp amannya
ĠC ont
Ġc endekiawan
Ġas ap
Ġdiam ati
S atu
Ġh ay
ent ase
ag anda
Ġmend eteksi
An ak
Ġge ografi
Ġpenjah at
ĠMassachus etts
en an
ĠS itu
Ġmem udahkan
Ġsa yang
ĠBeta wi
Ġter ungkap
Ġmeng ejutkan
Ġmemb ersihkan
Ġlen sa
ĠDig ital
t ama
is ha
ĠO ber
mp ulan
ĠStor y
G u
K isah
r oli
ba wah
ay an
Ġpengh ubung
ĠBur ma
ĠPari wisata
ĠMek kah
T rans
ĠS usi
ĠI kan
Ġc or
199 5
Ġso undtrack
ĠMedi ter
Ġk astil
Ġdi ukur
ĠU pacara
Ġpu as
Ġmenging atkan
y ong
Ġse x
ĠS ad
ula inya
Ġsejarah nya
ĠWal ter
M in
ĠC le
ĠY uda
ĠY ordania
Ġind eks
ĠUs ai
Ġsy uting
D em
Ġb it
kan ak
um uskan
ĠK oto
ĠT enaga
ĠCh u
Ġant rop
Ġberk e
Ġhi er
Ġdar inya
ĠWarn er
Per k
Ġ190 7
Ġpengendali an
Ġm atang
ĠL ine
Ġpeng epungan
Ġker amik
Ġbert anding
ĠB ush
ub le
ani f
og ne
oni al
as aki
Ġmen unjukan
atur e
ĠFor um
om pat
Ġser ba
Ġmemper panjang
A rab
g orit
Ä ĵ
Ġs arang
Ġb ik
ĠA ra
ĠPot ter
m und
Ġper usak
ent h
ĠE di
Ġseb elas
Ġmenda dak
Ġrevolusi oner
P angeran
S K
Ġf a
Ġf aksi
ch in
ĠKes enian
ĠZh u
Ġpenyer ahan
Ġrok ok
Ġter owongan
Ġsi buk
Ġmew arisi
KI P
d t
d inya
at ria
ĠD aw
ĠO lymp
Ġkel ebihan
ĠWis nu
C AR
eg ro
ila cap
Ġel it
Ġber interaksi
Ġr atus
re asi
Ġkeh endak
K itab
z ig
Ġmen antang
ep i
ĠMas kapai
ĠAfgan istan
Ġmen anggapi
ol itik
Ġin ci
Ġdip otong
Ġ190 1
Ġperoleh an
Ġmem bangkitkan
Ġmeng utip
tur al
ĠMa ul
ĠMad inah
te p
Ġte gangan
ab ri
ji ang
ĠMet ode
Ġsam butan
Ġsemen anjung
Ker ajaan
anic um
ĠG ot
ĠIs tanbul
ĠJa va
Ġtomb ol
) ".
Ġk ari
Ġdi de
Ġmendi ami
us unan
ro g
Ġkons ol
odi um
ick y
Ġk ub
Ġdi esel
ĠT urnamen
ĠE c
Ġmenyer ukan
Ġdira wat
ang gih
ĠK utu
ĠC C
Ġimp or
Ġmel ekat
Ġta wanan
ĠIm per
e butan
Ġn av
ĠPek alongan
Ġl imbah
ĠW ater
Ġpeng ecualian
Ġmemper caya
oci al
ĠKek ristenan
deb atkan
T uj
k ot
Ø ¨
ĠT rip
ĠR iz
Ġpan el
zi z
ĠKy oto
O ne
Ġmeng udara
Ġsek eliling
Ġdit angani
Ġdemonstr asi
Ġm ark
as u
Ġh tt
ong ga
Ġ6 6
ens inya
ĠSeb elah
Ġhilang nya
Ġvari etas
ĠKonf ederasi
I P
z ine
da kan
im o
ant ungan
ĠE ver
Ġmeny enangkan
Ġsam ud
KP BB
injam kan
F i
b atu
h itung
ĠAn at
emba la
ĠBa ch
Ba gian
w ali
or um
esi um
mar hum
ĠAnti okh
ĠGus ti
ĠDat aran
o pat
Ġs ter
ĠS empat
os us
ĠAr ist
ĠKong o
iaya i
ĠBen e
Ġpembu angan
Ġmeta bol
Ġarg umen
ak tat
ĠC en
Ġdiper kuat
Ġir igasi
D ewan
b l
il li
ĠM it
Ġf in
ĠU z
Ġart ileri
Ġli at
ĠHat ta
Ġh ambatan
hi o
Ġmengen ang
Ġdic ampur
Ġberm aksud
ĠEks ekutif
ft ware
sun ami
J alur
p es
Ġp ala
Ġsa yur
bar ui
ĠE arth
Ġkur sus
ĠFre e
Ġs ilat
ĠP ura
Ġw ahana
Ġmeny entuh
olong kan
ĠAir ways
ĠKam is
Ġdila tih
f on
n os
Ġb umbu
ĠR ain
se buah
ĠPr asasti
Ġma af
tulis an
al y
Ġsem ata
ĠBel iau
sit ektur
ĠWi dodo
osi stem
ĠSh er
Ġlam bung
Ġb ata
ĠP A
an ol
Ġp akai
os in
Ġpeng lihatan
Ġekstr em
Ð »
Ġb ub
ĠS op
Ġper bankan
ĠKar akter
ĠMo j
Ġï ¿
ĠP aram
ĠA lat
Ġr ujukan
ĠSa id
eni um
ĠDel hi
ĠGram my
f ir
Peng hargaan
Ġä ¸
z at
ĠB rad
ĠKe bumen
ĠKon disi
ĠBol lywood
ĠBis nis
c ana
ĠB T
uk as
ĠI mp
Ġc at
Ġmemas ang
Ġken yataannya
ĠQue en
D E
tu han
Ġf antasi
Ġbah agia
Ġberb ahan
entu m
AT O
Ġ emb
Ġdi usir
ada k
ak kan
ĠD evelopment
l ora
Ġp isau
am o
Ġin ovasi
Ġpen olakan
Ġmengh ambat
ĠGol kar
Ġpen utu
anj ak
ĠQ in
Ġli ve
Ġk enal
is u
Ġpeng gerak
Ġterp anjang
Ġkutu b
Ġpro tokol
att le
ĠT ul
ĠAn war
ĠSa yangnya
ilis asi
Ġpersen jataan
Ġus ai
Ġus ulan
k ai
arah kan
Ġmemp ekerjakan
e en
la tan
Ġj anda
Ġg udang
Ġsen si
Ġpemb ah
Ġge ologi
T ory
B N
uk ir
ĠL ittle
ĠG ug
ĠAg eng
Ġmenggunakan nya
Ġperp indahan
Ġwas it
Ġefisi ensi
u atan
z ation
ĠD KPBB
esi gn
amb ungan
Ġpas okan
F inal
s son
ekn ologi
usk rip
ĠAnton io
Ġdide dikasikan
g han
om ata
Ġa er
ĠTur k
Ġinves tor
Ġdisep akati
Ġs irip
ĠI P
omp osisi
gab dian
Ġwala u
Su atu
ĠS hir
Ġh arm
Ġba gaimanapun
ip e
ĠKa yu
ĠSo und
Ġped uli
p esawat
Ġm ari
Ġb ensin
ĠB rian
Ġj anji
int ik
idup annya
ĠMark as
Ġte gak
ĠKe empat
p aru
il iter
ĠD ragon
as eh
Ġper lakuan
eg et
tor asi
ribut or
Ġter dahulu
ĠT aw
Ġkar angan
Ġsaud ari
omenda sikan
ag aman
ĠCh in
bad an
ĠLes te
H asil
ak um
Ġpemb ebasan
199 6
E P
K ol
ah abat
Ġa badi
Ġpas tor
Ġar ena
ell er
Ġsekali pun
Ġsin tesis
land s
M ad
Ġp arti
Ġt ro
ol et
ap e
ĠT ed
ĠY on
ĠAl fred
Ġ /
ĠB iro
Ġper for
Ġfilm nya
ĠUmum nya
int on
ab il
th ria
Ġim bang
Ġmul ia
ĠAdi t
Ġkete gangan
Ġpengeb oman
T O
c iri
z eg
Ġ imb
ba y
Ġ8 8
ĠBudd h
Ġdom ain
l angan
o gi
ak tur
Ġber latar
ĠH ur
omp a
Pem erintah
Ġberla ga
Ġmi grasi
d ent
Ġt as
enc aharian
Ġpengh uni
Ġtemp uh
Ġdira yakan
Ġdi ti
Ġba yaran
ĠMar gar
ĠTh er
ret ariat
ĠKun ingan
J erman
K h
c ks
g um
Ġn ik
ev a
Ġi dola
Ġrefer endum
ĠB ap
ĠD ub
ĠW all
Ġorang tuanya
V ersi
ĠA BC
Ġr edak
ĠL og
Ġv al
Ġv itamin
hi asan
Ġ189 0
Ameri can
Sed angkan
f are
ĠM eh
ir ingan
Ġpem irsa
Ġbers embunyi
Ġspesi al
S ampai
ĠBer senjata
ĠDen pasar
Ġtemb akau
eduk si
ahbis kan
g g
ĠK edung
Ġterp enc
In d
Ada pun
ĠM agn
it ing
Ġmeng epung
Ġpen jual
ev an
ke lahiran
ĠBudd his
Ġper ancang
ĠC it
Ġmeny esuaikan
ĠV inc
Ġindivid ual
ĠKamp us
Ġdi akhir
ĠG ede
Ġc ek
emu anya
ot ongan
osi a
Ġsu aranya
ĠDat uk
Ġb ass
Ġh eter
aw ah
Ġmerek rut
r anya
un it
engg am
Ġdil epaskan
ĠTan aman
ĠBro ok
Ġ etika
Ġt sunami
st al
ĠTern ate
ĠPekan baru
: "
A f
ĠK eg
ĠL okasi
Ġkeka cauan
ĠHen ri
P urn
Ġd et
ĠP ho
ĠT eks
amb er
ĠPar oki
ga an
Ġkem as
Ġeks ternal
Ġmeng ucapkan
Ġdik onsumsi
Ġan alog
ĠZ e
Ġkol ektif
199 2
ĠBur sa
Ġakadem isi
ĠM T
ĠC ilacap
Ġla ku
int endo
ĠAt lan
lar asikan
ĠBangk ok
/ "
Ġt amat
bad inya
Ġger ilya
ogra f
In tern
burg h
Ġsegi tiga
pr insip
L ove
Ġk lasemen
ah agia
ĠH ewan
ĠG at
Ġint elijen
ĠSlov enia
Ġ ambil
Ġmem eriksa
ĠC itra
Ġn agari
ĠL ak
Ġas rama
Ġkomp oser
il id
Ġma zhab
Ġpenc ari
ĠPas ir
Ġpekerja annya
Ġfungsi onal
ĠKomp uter
Ġdieks ekusi
ê ¦
ĠG am
Ġlanda s
ĠNig eria
ĠMediter ania
Î ·
ĠM ali
ov ina
ĠUn der
ĠDa vis
; )
P e
ĠC N
ic us
Ġ9 00
Ġro man
Ġras ul
Ġ ucapan
is al
Ġpada hal
amp a
Ġberman faat
U L
Ġ ~
ĠG em
ch ing
eop le
Ġsekolah nya
Ġdekat nya
er u
ĠM eri
est arian
ĠRo se
Ġrep res
Ġbet on
b re
te or
Ġmeng ontrol
ĠJ og
Ġc ikal
Ġmenc alonkan
sk op
ĠK ri
ara b
Ġper empat
ĠJ arak
per i
ĠMon te
ĠRi ver
oso fi
omenda si
erdas an
T aman
Ġdi dik
si di
ing ham
ĠO ricon
Ġkh alifah
Ġpri badinya
P anicum
U U
Ġs w
Ġp refektur
Ġkec enderungan
Ġdem am
yl vania
Ġspek trum
B adan
ad uan
Ġsendiri an
amil y
len ea
Ak hir
B and
I l
ĠT elu
Ġr acun
Ġterk esan
Ġp iala
ĠDem okrasi
Ġis inya
Ġpengg ambaran
okus kan
Ġkonf igurasi
tu h
ih al
buk it
ĠPark er
ĠâĤ ¬
ĠB y
ĠB ow
Ġr incian
Ġtak tik
Ġpenggunaan nya
ĠMich i
dahulu i
ĠU jung
Ġterg anggu
ĠRa il
ĠKur ikulum
m id
Ġdi arahkan
sa y
ĠAm in
Ġberb unyi
engg ung
199 4
ĠSard inia
Ġdi dalam
ĠS n
ĠC ross
ov ich
Ġpengas ingan
opuler kan
ĠBalik papan
×Ļ ×
n askah
Ġr encananya
Ġberk apasitas
aj ukan
ĠBi ara
Da erah
ĠLuth er
o on
Ġse baik
on isasi
ĠN ations
Ġberk ep
Ġdim odifikasi
Ġpenc apaian
oth er
Ġdipro duseri
F F
Ġl es
Ġf on
end y
ug e
aka o
ĠKr esna
o las
ak ata
ĠR u
ib er
ves tasi
Ġ189 8
ĠSum bawa
Ġdipas arkan
C er
S ur
Ġ usus
Ġber diam
Ġba caan
ĠSMP N
Ġhom os
o dik
Ġs an
Ġperk ataan
Ġmener jemahkan
in ea
am ilan
si m
ĠA I
ĠE thi
op s
ĠAm an
Ġkom itmen
ĠId ol
z ong
Ġp ort
ĠS wi
ho gun
Ġpres enter
Ġber buat
ĠL ady
Ġc anggih
ĠCh ild
Ġo ver
ĠSh im
Ġp esa
Ġke hancuran
Ġfr aksi
ĠCa bang
ta v
Ġh its
Ġg ampong
ĠPer juangan
resi kan
si de
ĠK imia
ĠBer g
res s
Ġå ¤
Ġpat ri
irip an
in y
k ara
l it
la ce
at han
Ġper sis
ĠH AM
Ġmend eskripsikan
L et
M em
en arkan
Ġmen un
ab arkan
eran si
ebu s
ĠKh al
Ġ190 2
Ġmenyumbang kan
ĠPier re
Mes ki
ĠW as
Ġkon eksi
Ġditer uskan
ĠBer bahasa
Ġpers embahan
aku asi
ĠSC TV
D in
ĠM bah
ĠI man
se d
Ġv ulkan
ĠMal ta
daya kan
ĠMin ang
Ġ190 3
Ġdi trans
Ġse dih
Ġre aktor
icara kan
ĠGad ing
ĠJose on
ingu istik
gi c
Ġla gunya
ĠH IV
Ġhip otesis
Ġekstrak urikuler
K K
ĠJ ember
ĠN ev
and uk
angg anya
Ġbuah nya
Ġuk iran
ĠL is
Ġmengh adir
ĠPers emakmuran
Ġch art
B ab
er y
am oto
ta lasi
ara laba
Ġper sep
Ġdilakukan nya
Ġdid orong
Ġpenj uru
gak kan
Ġeng kau
ĠArs enal
bu lu
Ġpro gr
Ġpr asarana
ĠPi us
ĠKomp as
ĠP R
Ġmengh alangi
Kar ya
Ġlengkap nya
E AN
Ġper dan
Ġdis ini
Ġga ji
usk es
ĠEx press
B O
M ich
U R
as er
ung sinya
emb ung
ua ya
ju angkan
ĠAh li
Ġamat ir
h ur
ĠP ihak
ti me
ec tron
Ġberm atap
ph y
ĠMul ia
ĠJohann es
ah am
Ġpem eliharaan
Ġsangat lah
Ġtomb ak
ĠBene dik
Ġt indak
Ġpenderita an
ĠSamb as
ĠKaz akh
g aran
ĠT enis
Ġn anti
id ana
Ġdik abarkan
Ġpeny edia
ye on
ral tar
ikir kan
Eks entrisitas
P d
am ia
Ġas uransi
ĠMem iliki
ĠPerb edaan
f ungsi
Ġpeng angkatan
Ġdiper panjang
Ġmengak ses
ĠSl ow
us ai
ĠF al
Ġdik ritik
Ġ9 8
Ġkeh idupannya
ĠRah man
Ġbermatap encaharian
ĠB anda
ĠR he
Ġ6 8
Ġpemb antaian
ĠCarl os
col or
ĠPanc asila
Ġh aji
op ang
ob at
tif kan
ĠPeng urus
ge di
Ġduk uh
Ġtent unya
Ġmem unculkan
ent askan
Ġperdan anya
D P
ĠH av
Ġdim ulainya
Ġtim nya
Ġperk umpulan
ask us
Ġnya wa
b ola
j ati
ah ukan
Ġber abad
ĠM ini
isi h
Ġdis ambut
ĠSen yawa
ĠWi jaya
t ah
ar en
Ġp ag
ĠD own
Ġba d
ĠH ans
ĠG ran
turun annya
disk usi
ip ut
P an
Ã ¥
Ġb angku
eri us
ilm u
Ġ0 5
ÃŃ n
ĠRac ing
Ġgand um
C la
ani um
re diksi
Ġberl ari
ĠSal im
ĠTel kom
ĠNar uto
May oritas
) ",
T r
y eksi
en ing
Ġs ta
ĠP it
Ġpen anganan
Ġr aj
Ġkeber adaannya
at egori
Ġke war
ĠH uang
lin s
rip t
g or
ĠA q
ĠA ji
ĠK it
ĠK uning
ba dikan
ĠAr ea
ĠZ ona
ĠKr isti
ĠLud wig
t le
ĠI ra
ĠC ul
Ġka win
Ġmenga baikan
Ġsk ema
ĠMo on
S tadion
im us
ul tasi
ĠC ode
op al
osi asikan
Ġbukan nya
Ġmenang is
Ġkant ong
ĠP G
Ġsa us
op o
ug asan
Ġkap ital
buk ota
Ġmengi ra
Ġters embunyi
ĠEur o
Ġmenda ftar
Ġterbit an
onda si
Ġ endo
ĠH ome
ĠAm az
Ġkons onan
Ġdep resi
Ġ190 4
her e
ĠRog er
c raft
Ġn asihat
Ġdipas tikan
Sel anjutnya
M od
al iran
ta wa
Ġper undingan
Ġperl ombaan
ĠSya ikh
ĠRegi onal
c ontoh
Ġter lahir
Ġmem ajukan
ĠL ind
Ġdik onfirmasi
res entasikan
Ġberw enang
ĠCon c
Ġp intar
Ġb oy
ĠW ell
ĠPem ba
ond ong
ĠGa o
C or
b k
Ġ í
ĠN intendo
Ġd apur
es c
do t
Ġkep ausan
Ġbers el
ĠMo z
ĠResi men
ah kota
Ġg antinya
ĠH ub
ĠMas ing
har ata
oc a
ĠMan ila
L am
m ul
u buran
Ġt ok
ol k
ĠM H
ir is
esar an
ĠFilm s
Ġberisi kan
Ġsifat nya
Ġperc akapan
m inya
il h
Ġkem arau
Ġdikirim kan
z ia
ĠSa f
bur uan
Ġpat ah
Pro ses
M ala
ĠB asil
ĠL amb
ĠF an
angg alan
Ġpeng umuman
tas inya
dak wa
ĠKara wang
Ġk ental
ĠL etak
ust inus
agn osis
% ).
ĠP ay
ri el
Ġmas ak
Ġmas ter
st ar
Ġfil e
Ġmengaku isisi
ĠBab il
Ġhat inya
Ġte bu
ot is
Ġberp otensi
s he
z al
Ġdi ap
ur angi
Ġterh itung
Ġli buran
Ġteb ing
Ġlayak nya
à ¦
Ġt embak
or ban
us s
ĠC lo
Ġ0 8
ĠUS A
0 2
Ġk un
el son
ĠD arus
ĠMar g
Ġ0 2
Ġmengob ati
uskes mas
w ono
la f
ĠN on
ĠE le
Ġkel emahan
p t
Ġter oris
Ġbu ta
Ġperk ara
ĠIsa bel
Ġcac at
il da
ĠF isika
Ġre kannya
ĠPanda wa
S C
ĠA pa
ĠLa os
Ġpolitik nya
p is
ik lan
Ġper amp
ĠC atatan
Ġmeny iarkan
Ġterp engaruh
ĠPeng h
Ġpar alel
ashi on
Ġkong res
ĠM its
Ġr ub
Ġterk ini
ĠHab sburg
ĠKul on
ĠPern ikahan
Ġmenghadir kan
en ne
ĠT es
Ġakibat nya
S E
Ġm inta
Ġber acun
Ġpem buluh
ĠTh ai
esu aian
Ġund angan
Ġc elah
engg er
Ġpel opor
Ġtari f
Ġm uk
Ġp istol
ya itu
Ġdin amis
ĠTh or
Ġ189 5
ĠAf ghan
ĠEng ine
ĠOff ice
C on
ĠK RI
Ġbi j
Ġkomp eti
ĠEn ergi
ĠBus iness
an aman
tuk ar
ill us
ven tus
F ranc
Ġb ilang
ĠB ara
te b
Ġmeng erti
ĠH arian
ĠAs yur
Ġim un
Ġab jad
fur t
Ġpro por
ĠWik ipedia
Ġparas it
ĠIskan dar
ĠEthi opia
Ġper ebutan
Ġtert angkap
ĠHam ilton
Ġsy stem
c ess
j anjian
s hire
ak iman
ik sa
ĠU M
ĠPer an
Ġmembant unya
Ġdimas ak
Ġse umur
Ġl ini
amp ang
asar jana
Ġpemu jaan
uk ulan
Ġh ormon
aya m
Ġ7 6
por e
erb y
Ġ188 9
kan dal
Ġpem ikir
ad ukan
Ã ¦
la l
ĠT epatnya
up unya
ĠMa ga
Ġmer a
Ġa ja
ĠW ind
ĠFran ka
ĠPok Ã©mon
ategori kan
ĠBel itung
Ġ187 0
Sek itar
en jar
ĠN ip
ĠY os
ĠDa un
ĠTor onto
ĠWill em
ĠPekerja an
Ġdihadap i
ĠMov ie
ga in
ĠK amen
ĠT ris
ĠJ aringan
unt ung
Ġtrans p
Ġjam inan
ĠRa bu
ĠNAS CAR
ĠQue ens
ĠAlas ka
ari us
ap asan
ĠR um
Ġf ans
Ġdik utip
Ġpro t
oh a
ĠSat ya
i x
y d
Pro f
T ur
b et
s ang
ĠKa iro
Ġ0 7
ĠPela ks
ĠWal t
perk irakan
ĠFern ando
0 3
o ordinasi
ĠP DI
ro mi
ip s
ĠIT B
esm ian
l ub
Ġb oc
ant ha
utri si
Ġdi gabung
us c
ĠC ro
Ġy uris
ĠSlow akia
ij rah
Ġhid rok
ĠFred erick
P el
Ġpeng enalan
aw ak
ĠBr uce
ĠMo ore
Mas yarakat
ĠFir st
pret asi
B u
j elang
te fak
arn ai
ĠAnd y
ĠPlan et
ikm alaya
Ġs yair
Ġmen aruh
ĠT itan
Ġr asional
he ad
ind ustri
ĠGib raltar
Ġdihi asi
ĠN il
eg on
Ġtu tup
lo itasi
Ġins truksi
Ġtr iliun
Ġne ut
ĠHasil nya
lement asi
Ġinisi atif
7 00
S at
o ver
Ġm onster
Ġs ari
Ġb und
si onal
ĠL ituania
per an
eja an
tip ula
k ripsi
Ġmen ab
ĠP KI
ant aran
ĠKar o
Ġ189 7
ĠPend ukung
Ġpena yangan
Ġs utra
Ġt iri
ja uh
ĠR av
ĠU NI
ĠW olf
Ġberk isah
Ġga y
en di
Ġter as
Ġpela ut
Ġmenyang kut
ĠMum bai
ĠB eb
up i
Ġf un
ad or
Ġkel anjutan
bi asanya
ĠKo es
Ġfin ish
H ong
Ġb atasan
ili an
alur kan
ĠGr esik
Ġ190 9
Ġketer t
Ġinf an
ĠBor neo
Ġs umpah
Ġse bulan
ĠM NC
ĠB unda
ul ung
unc ur
Ġmengin dikasikan
Is lam
Ġmer awat
ĠL yn
ĠW W
Ġmemper cepat
erja an
Ġkelu aran
Ġres minya
Ġkeb etulan
ect ric
Ġm and
Ġm utu
Ġb log
Se jumlah
Ġbot ol
P iala
ĠF un
sa u
ĠV ladi
ĠEn am
Ġkak inya
Ġsub yek
ĠOl d
Ġfor um
Ġmempering atkan
ĠIA IN
en berg
in di
se cara
ĠG M
ok ia
Ġmas anya
ĠTer akhir
Ġ0 6
ĠLin ux
ĠMana gement
ĠMargar et
k um
Ġ ungu
Ġt amp
ĠT apan
ĠU lu
mo uth
unisi a
v ent
Ġm ic
ĠJ ama
Ġf leksi
th ers
ĠPen ulis
ĠSan ti
uf aktur
Ġsil silah
ĠAnth ony
ĠAr am
ĠAr ena
uad ron
ĠJer sey
Ġalum inium
K ons
w ari
in es
eng gal
ĠM emp
ĠR ai
tik el
Ġpenja jah
ĠNap oli
ĠTelu gu
S itus
n ers
en ai
Ġin form
ĠN eg
ingk ir
ĠTr ump
ĠKap oor
Ġse di
ĠB endera
Ġba ginya
atif ikasi
Ġmenggantikan nya
Ġkul iner
Ġkonstitusi onal
c asarjana
Ġ ungkapan
Ġber enang
ĠK B
ati o
Ġkali um
Ġ6 1
eli um
ĠSh o
ĠBill y
ĠAbdur rahman
g ing
l embaga
ĠT ob
Ġmeng ut
end arai
Ġlahir nya
Ġpengan tin
tad t
Ġrup iah
Ġdipec at
Ġtel uk
ĠSum edang
ĠTuj uh
Ġinfan teri
ari ta
ĠB ros
ĠH ugh
Ġmel epas
osi da
Ġtempat nya
ĠAk h
Ġ189 9
ĠGar ut
Ġbersek utu
Ġkakek nya
I b
m usi
Ġ ip
ti wa
ri b
Ġte olog
Ġbi arawan
ig o
ori entasi
ĠQ atar
Ġpersi mpangan
ĠS utradara
ĠP ohon
Ġni at
c atan
r ep
Î ¼
ak es
ĠI M
ri er
Ġf ragmen
ĠZ en
Ġar ahan
ĠX V
Ġcer pen
Ġaw am
; "
em ari
am us
ĠJ ombang
ĠLap oran
L S
em y
Ġke le
Ġmeng ikut
Ġc erah
Ġpeng urangan
lu ar
angk ar
le e
Ġ189 6
ingg ung
A ustr
ĠA ff
ĠB abel
Ġr entan
ala l
Ġhid ro
ĠHadi ah
ĠLabor atorium
l ess
di dik
ĠC li
asil itasi
ĠZ hao
Ġ7 8
ĠSh u
empurn akan
ĠW el
Ġkeseti aan
Ġmeng emukakan
Ġant arm
Ġut ang
Ġterb alik
Ġmenya mar
ker ajaan
omata ceae
Ġb anding
Ġpen entuan
Ġpem ulihan
Ġpeng eluaran
ĠSula iman
Ġprop aganda
Ġp aram
is y
ĠC im
ad uk
impin annya
Ġterpenc il
O H
Ġ ov
Ġ ingatan
Ġp ilih
ti b
ĠB od
ĠD ut
Ġpen amaan
ot ten
Ġpers on
ĠSt ates
Al l
Ġis lam
M ac
s as
at ing
Ġt it
em ala
Ġdil angsungkan
199 0
hat tan
Ġmembu ang
Ġfot ografi
ĠBri gade
Ġtor pedo
Ġvir tual
ol n
ĠF ish
ad ron
st omataceae
Ġpol imer
Ġperk ampungan
Ġproses or
S te
r ence
s emen
ĠN ilai
Ġ6 3
Ġ0 4
oy d
Ġhi as
Ġkonser vasi
Ġdr astis
Bers ama
ĠK ash
ot ing
lu e
Ġset ingkat
ĠPan ama
Ġab s
ĠBern ard
Ġmeny ingkirkan
Ġfr asa
ĠTechn ology
gorit me
G P
G rand
s asi
Ġb engk
Ġse tan
id ung
Ġpeng kh
Ġberk ali
arti r
ĠMay oritas
Mela stomataceae
Ġfac to
c erita
ĠA ja
ĠJ ur
Ġf inis
ĠH op
Ġpeng unduran
ĠPen dapat
elak angan
Rep ublik
ĠSuka bumi
Ġkewar ganegaraan
F L
I st
S ang
U p
Ġd angdut
Ġs and
ĠN ATO
ĠMah araja
Ġpeman faatan
Ġdiakhir i
ro h
ila s
Ġgen catan
uti ara
ĠTer p
Ġkoordin at
D ep
Ġs angg
Ġdi tim
ĠW ed
ĠO h
ĠTV RI
b ian
k ha
Ġl iturgi
Ġka wah
Ġdip utuskan
Ġkes an
erb ong
Ġdig olongkan
ĠPh y
Ġrep utasi
eni x
Ġgra fik
ĠT H
gun ung
Ġdis amping
Ġid en
Ġc etakan
atan an
eri al
uni kan
Ġ9 6
Ġpenga was
Ġsin ga
Ġlam pau
Ġvari abel
v irus
Ã ¬
Ġuntuk nya
Ġdik laim
Ġdemokrat is
J awa
p ak
ĠP rad
ĠF el
ana u
Ġw aralaba
ĠAd olf
ĠSp arta
din and
Ġterin tegrasi
aseh at
ĠO bat
lo ad
on gi
ta ceae
ĠPac ific
c le
ĠA gr
ĠI da
Ġsa buk
dik at
Ġad u
In s
ĠKonstant inus
romy za
ĠKrim ea
E d
p emb
Ġkem iripan
ĠPen ns
ĠRasul ullah
A K
us uk
Ġpen ugasan
end emen
ĠSela sa
Ġmembunuh nya
ĠPersi b
ĠPil kada
Ġj an
Ġc angk
ĠBer kat
ho use
Ġgun akan
ĠAfghan istan
Ù ģ
op ean
19 91
Ġlok asinya
Ġkan on
log an
w orth
Ġber migrasi
uasa an
e u
t omyza
er ator
tu pi
us ti
uk h
Ġmeng es
ĠE arl
Ġmemper s
Ġma inan
Ġdiak ibatkan
St ation
ĠTern yata
b ase
p ei
ip rah
Ġdisek itar
k os
Ġd ominasi
at re
Ġor n
Ġdit ahbiskan
ĠMe x
Ġkat anya
ĠPurw okerto
ĠKari bia
ĠPenns ylvania
P ot
Ġp upuk
ĠS esuai
ĠU K
ip ulasi
Ġhari mau
Ġst yle
kar ena
Ø ©
ĠG ang
Ġdik elompokkan
ĠBar on
ĠJohn ny
rim inasi
ĠGo wa
Ø ³
Ġp artisipasi
Ġk anak
ĠS alam
Ġter kuat
ĠK iai
ĠT bk
om asi
Ġpen yang
ina wa
ungg ah
oro ugh
ather ine
0 6
Ġb atal
ĠS eng
ĠJ ami
ĠF itri
20 18
Ġperse diaan
P at
en za
di g
Ġper aih
Ġper intis
Ġ8 4
Ġmenj anjikan
Ġberm esin
Ġteritori al
r esidenan
z ona
Ã Ł
Ġd ina
int in
ĠCh er
Ġ18 60
Ġke jam
ĠV it
Ġdiper baiki
Ġhadi ts
obot s
Bel anda
htt p
E ur
r amen
ĠJ ok
amp akan
ĠPal u
K eter
ĠS TI
ĠP osisi
ĠP ublic
Ġsek uler
Ġkon tras
Ġdipen jara
H ol
r empah
y oshi
ĠS truktur
Ġke baikan
gr aph
Ġterp ecah
ĠBany umas
D o
ĠD y
Ġl et
ri x
ĠJ iwa
Ġdip an
ĠDip l
Ġdisi apkan
Ġsastra wan
Ġori entasi
d il
ĠS ains
ĠM iz
Ġa las
ĠSe tia
Ġ3 50
Ġkec erdasan
dik enal
eral d
S ir
k ey
n ess
Ù ı
Ġr eview
Ġn orma
per gian
ĠH ell
ĠAm b
enda l
Ġmend atangkan
ĠKeb un
M uh
W al
ap ura
ĠI ch
asi at
Ġku bu
Ġap alagi
ĠIst ri
Ġamb isi
r l
w ick
Ġdi ca
ĠK Ã¶
op oli
SM K
etu ai
Ġpid ana
j er
et ing
ĠKe adaan
dis asi
ugi kan
i grasi
k ons
Ġp antas
Ġmen ump
ĠM PR
Ġl umpur
Ġba u
unc il
Ang g
ĠA R
Ġter per
ĠC ab
ĠO f
Ġmenj elajah
ou ch
ban k
ar ut
Ġmen iru
ĠD ic
st il
awa i
d angan
ĠE ff
isasi kan
ff e
ĠInd y
Ġinter vensi
R os
S uper
h ab
Ġd ri
Ġk ir
Ġb edah
Ġh ard
ĠH and
ĠQ i
ĠKid ul
or ge
se f
und angan
ĠSu zuki
ĠTas ikmalaya
hol m
ĠMichi gan
H K
ant am
Ġ7 3
Ġar ca
ĠMan hattan
ĠHar un
ins tein
ĠPla za
ĠSud an
Ġrer untuhan
j al
n el
ĠS ingk
Ġsem ak
Ġisti rahat
ĠPhilip pe
Ġseng it
ĠPram uka
zeg ovina
A A
t al
zi o
Ġp aman
ĠM iller
Ġper hiasan
Ġv eget
aksi kan
ĠJu ventus
si ar
Ġpeng in
Ġbawah nya
Ġkap ur
Ġketi da
awat iran
c ore
h entikan
ĠA T
ĠN un
ĠL ot
Ġkon v
Ġdiba yar
Ġot omotif
c at
ĠG amb
Ġtel eskop
ĠSwi ft
e ur
o ter
eng ka
ĠD onald
Ġmeng uji
isti rahat
Ġpengan tar
Ġsul fat
Ġmekan ik
C C
g aris
ga gas
es p
ĠP esisir
Ġter kandung
ul ing
Ġn er
Ġsp in
ĠDar win
Ġur ban
ĠWah yu
am ina
ĠS illa
ong g
ĠMar vel
Ġmend uga
ĠJos Ã©
P op
k amp
Ġin tegrasi
Ġper ihal
it annya
Ġmeng ungsi
atan nya
Ġdite kan
Ġterc ipta
ĠTah ta
Ġdak wah
ĠPremi er
ahagia an
D av
I bu
P usat
Ġber ba
ĠG ur
Ġkep ing
ĠDi ego
Ġpemb atasan
ĠPen ye
Ġseja jar
R ef
en berger
ĠS BS
ĠD oc
ĠJ ason
ĠJ ordan
ĠY onif
sa lah
Ġkec ewa
Ġsep upunya
Ġ6 9
Ġek osistem
ĠCi anjur
Ġminim um
Ġlemp eng
a but
Ġm ud
Ġs ungguh
ek arkan
Ġpem buru
Ġsin ema
Ġoksida si
A li
E s
M ulai
T el
U T
V ern
ĠD atu
Ġsej alan
angs ang
at om
ĠM ed
Ġmeny andang
Ġ7 7
Ġtangk is
ĠProduc tions
Ġmenyeber angi
j ub
ĠR ow
Ġser atus
yar akatan
lat en
Ġdiper debatkan
ĠAir bus
r akar
Ġn ig
ĠC IA
Ġbert eman
ĠAb bas
Ġge ometri
ĠChar lie
y es
Ġke turunannya
Ġba lasan
Ġc ols
aran nya
Ġdib idang
ĠGr egori
pek tif
ĠBag h
Ġstu dinya
E E
p ela
á ¸
si as
ĠT urn
Ġme dium
ĠAS EAN
reg asi
ĠIndon esian
Ġcols pan
r iller
s hi
bang unan
zi arah
Ġmendi dik
0 4
M ari
am atkan
ĠT ik
ul angi
Ġko ordinasi
ĠEx p
Ġpeman asan
ĠUma yyah
K i
d pl
n us
Î º
ah uan
or ogo
jak arta
Ġ12 5
engk orak
wi yah
ĠHam id
Ġgro up
Ġs engketa
ĠM M
ĠG ag
Ġmemper ebutkan
ĠBr us
Ġdic uri
empurn aan
L ap
ĠC ry
Ġc engk
Ġman ual
inc ang
Ġperp ecahan
osh ima
Myr taceae
ĠSis wa
Ġmendatang i
B lack
Ġp andai
Ġt end
ĠA ziz
ĠT ian
ĠL ast
ĠF uji
ĠAl ber
Ġkem arahan
Ġ9 7
Ġmengen ali
Ġ188 6
ĠGor don
Ġemosi onal
ĠLen in
h ara
Ġk udus
Ġb enang
ĠS iwa
ĠM arga
imp a
ĠSa v
anta uan
ens tein
ĠLi e
Ġ188 5
ĠChrist opher
Ġanda lan
Ġs urut
ĠK eter
ĠB art
ĠH ali
aran semen
ili wangi
sis me
ĠBl itar
ĠHi jau
f li
f oto
m emb
per istiwa
enc er
Ġrek omendasi
ĠAsi sten
Ġtir inya
elus uri
Ġbuti r
ĠBuddh isme
l ip
en nis
Ġb re
Ġmem ancing
Ġn yanyian
ĠCh all
Ġpener bang
ĠÃ ģ
Ġm uara
la gi
tu ra
ĠF ul
Ġgen etika
Ġdis em
ĠKr ak
ĠSer ang
Ġpesa ing
u it
Ġt ren
ah ara
Ġber apa
Ġdib ahas
ĠGu at
Ġpsik ologis
l ika
p y
Ġdi imp
ba g
Ġmeng alihkan
Ġde bu
Ġmasyarakat nya
ĠGo a
ĠTa o
antas y
g askar
in ce
ĠS ih
Ġpemb angun
Ġkons ultan
edi aan
ĠGu y
Ġ188 0
Ġkerj anya
Ġare al
ombinasi kan
b oy
ec e
ĠMaz mur
ĠT ala
ĠL egis
Ġ10 1
ĠWe ek
ĠNas ution
k ulasi
ĠB akar
ĠD ai
Ġl embaran
Ġmel anda
aba i
Ġsubs tansi
Ġnark oba
hitung kan
en tian
en egro
Ġpeny atuan
uga wa
anti asa
Ġend emik
R usia
d em
Ġ ensi
di on
lam at
ĠPer ak
Ġkekuatan nya
Ġpemba caan
Ġpersa wahan
t ator
Ġs ch
ĠP abrik
oc o
ĠKar no
h ukum
ĠT ag
ent ra
Ġdik ategorikan
ic es
ĠKh alifah
ĠMem ori
ĠBra zil
K elompok
S ultan
p kan
Ġb ut
ap usan
Ġjuta an
ĠDam askus
Ġsol id
Ġp anc
Ġk ok
ati vitas
ĠâĢ ĭ
Ġmengh idupkan
dis emen
Ġkal sium
ĠSen jata
tu an
ĠA G
ĠT w
Ġmeny embunyikan
od er
Ġmengh ukum
yc e
ĠKer aton
Ġsuk sesi
ĠMobil e
Ġpembicara an
Ġs umbu
Ġl eb
ĠN BC
ĠAl len
ulis tiwa
Ġorbit al
pert inya
jaks anaan
ĠKutu b
Ġm adu
Ġter wujud
ti es
ĠE ug
Ġ6 7
gra f
ĠAug ust
ĠPatri ark
P al
Ġdib iarkan
ĠZ ul
Ġrep roduksi
ĠMc L
Ġukur annya
en na
bu dakan
ĠY er
m ont
on na
el y
ĠAng likan
ph ia
Ġpus aka
ĠP esta
ĠD w
ri um
ent asan
eda l
Ġdu o
Ġbub ar
r eh
ĠC ep
ĠJ ag
ĠMer c
Ġtr ek
ĠCan nes
ĠSlam et
ĠJ essi
ĠVen us
ĠBoy s
Ġpenyi ar
S k
ĠM ara
ĠB esi
Ġpen gabdian
ĠE lis
Ġv ektor
ĠCar ter
ĠEm irat
Ġterin feksi
Ġsiap apun
inja uan
r el
ĠD id
ingk ah
ew s
Ġpol itis
Ġ8 1
Ġtop eng
Ġbersik ap
G rup
Ġp H
ĠM P
ĠD ance
ĠL inc
Ġsedikit nya
sek al
ĠLim ited
Ġbudi daya
ĠGuat emala
E k
n at
Ġke y
Ġant ariksa
das ari
D ip
T un
ĠS idang
ĠM angg
ĠD il
ĠT eb
ĠT eg
ĠG ri
Ġmemb andingkan
end ara
ĠBr ebes
ĠPemb entukan
ĠKomp leks
etus kan
× ķ
ta u
Ġdr amat
S P
er ra
Ġ0 9
orn o
M ak
eng e
ur yeo
Ġmem buruk
ĠD ian
Ġl inguistik
wa la
Ġg em
os fer
eks asi
Ġkom ent
Ġdi olah
ĠB oli
ĠT angga
Ġg emb
titu t
Ġkat edral
ĠCarol ina
l un
Ġk entang
Ġdi lanc
ĠJ um
ĠCo unt
P esawat
u ar
er na
Ġt ela
ĠB ukan
Ġh impunan
Ġoleh nya
unt un
ĠRa chel
Ġperc intaan
opot amia
A z
Ġber orientasi
Ġdik urangi
Ġup eti
ĠKum ar
Ġdor ongan
J enis
W orld
u z
Ġmen dasar
si st
ĠP ublik
ĠI an
do va
wa it
lan et
Ġdiper hatikan
ĠTer tinggi
Ġpengg antinya
Pr esiden
ĠHow ard
ĠDarus salam
y um
Ġmem utar
ob ia
Ġbert ema
ya di
ĠM Ã¼n
ĠG ian
aran i
ob e
Ġweb site
ĠPS SI
ĠMasa lah
ĠPlay Station
ĠÄ Ĳ
Ġdilanc arkan
E K
Ġd angkal
ĠR ic
Ġmengan alisis
ĠOk inawa
ĠMada gaskar
N G
ĠB ey
ĠB iru
eb ri
ĠN eder
ok imia
Ġsen antiasa
tor y
Ġkel enjar
Ġman ufaktur
Ġpers entase
ĠMa o
oth y
Ġmenda mp
ĠSab ah
Ġpac ar
Ġkesi mpulan
J akarta
o ga
s ons
w arna
ĠG aris
est ari
Ġditempat i
H S
f abet
h ala
ĠM eg
ĠB ot
ro ad
Ġpers onal
Ġdid eskripsikan
H ukum
p artai
di st
Ġf lav
Ġdik emukakan
Ġv aksin
ĠPert emuan
Ġart istik
Ã¶ r
rok lam
ĠBea ch
ĠMosk ow
ĠErn est
F ran
ĠT at
ĠJ as
ĠE P
op y
dik ator
ĠNew ton
ĠAli ce
alif ahan
ĠFer dinand
f aktor
ĠK adang
ĠB P
Ġmel estarikan
Ġsep aruh
Ġi lahi
est inasi
rom agn
ank si
ĠMangk un
em buhan
el op
ĠB ed
ĠG una
ug erahkan
ĠBro thers
ĠBal kan
Ġpur ba
ĠÅ Į
ya p
Ġmen amakan
di c
ĠM C
Ġdit onton
inda san
ust on
ĠX VI
omb ong
Ġpri oritas
ĠPemb ebasan
Ġam f
Ġ188 8
raktik kan
ĠKela pa
u ver
tur y
Se iring
Ġku buran
ill y
ĠIk atan
Ġmenab rak
Ġd pl
Ġb endungan
ĠB erita
uk uhkan
et y
Ġba las
end s
Ġ7 1
ĠBul l
Ġcac ing
Ġjer uk
Tuj uan
Ġpenutu pan
Ġp agar
ĠB es
Ġpen anda
Ġw ir
Ġmenganggap nya
Ġakadem is
ĠKazakh stan
0 9
B ur
Ġber istirahat
ĠP B
ĠR in
ra gan
op ak
Ġmemb el
enter ian
Ġmembant ah
Ġantarm uka
ĠS ung
ak tian
Ġber uang
ĠA x
bu daya
Ġmeng gerakkan
Ġkem enterian
Ġtert anggal
Ġpers pektif
Ġhi u
Ġ189 4
Ġsahabat nya
E ropa
L embaga
W A
Ġpen daft
Ġn utrisi
Ġsa ingan
ind ra
ĠAng ka
Ġkeh amilan
ĠKon on
Ġlog istik
il kan
Ġf ungsinya
Ġdip injamkan
st one
Ġ0 3
ĠOb enberger
Ġsubs pesies
K apal
Ġb eta
ĠS ug
ĠP engg
ĠB int
Ġmer antau
ĠH em
ĠF ungsi
ĠBa ek
ĠLuth eran
Ġresep tor
c ons
ĠA TP
ĠD ak
Ġg r
anda s
ĠMat t
ĠRos s
ĠDel ta
Ked ua
k ecuali
Ġ amun
Ġm ang
ĠS utan
Ġl ukis
ĠF amily
angk itan
Ġmemer angi
Ġmenu ai
Ġberda gang
U r
b anyak
Ġ udang
Ġd eskripsi
ar on
ĠBeat les
k omun
s ungai
Ġber ibu
et araan
eh r
Ġbers umpah
ĠGen eration
ĠBol es
Ġpelar ut
urni an
ong o
ard jo
aksi an
Ġpenga wal
lin ois
Ġcer itanya
k emudian
Ð ²
in ang
ĠS embilan
ĠL ing
Ġdit unda
Ġpay ung
Ġï¿ ½
Ġp anitia
ĠH D
Ġbu buk
oph ora
fer ence
war man
Ġet anol
Ġdian ut
Ġmena yangkan
ĠMont enegro
Ġmenyem buhkan
0 8
ĠK ub
Ġpro ton
ila del
ĠCa esar
ĠRena ult
us en
ĠT eh
Ġdiper ing
Ġmengg ali
ft arkan
d s
Ġt atanan
on isme
ĠB arisan
Ġdik er
ĠPen ampilan
ĠTa e
Peng gunaan
kl ub
Ġpene tapan
e ga
ĠS usan
ĠJ ene
ĠH ea
Ġmemper juangkan
ĠCo uncil
Ġrakyat nya
ahaya kan
mb ol
ĠTu buh
t inya
os ta
ĠO hio
tan ah
ĠFilm fare
yl and
Ġlog ika
ĠBari to
Vern onia
v ar
ĠI de
im u
Ġmeng emban
Ġmeny atu
Ġput eri
endah ara
Ġam ino
ĠGog uryeo
Ġhtt p
B uk
Ø ª
Ġs indrom
et ra
ac o
ĠKe j
ĠAk si
Ġtujuan nya
198 9
Ġber i
ĠP ant
ĠC ritic
Ġdis atukan
ka wan
Ġ; "
Ġpeny unting
ator y
Ġd ekor
ĠP uri
el ir
Ġh ormat
Ġdik epalai
Ġpend anaan
emen s
ĠRa ch
Ġ188 4
af sir
ĠRes olusi
0 7
n al
Ù Ĥ
Ġnav igasi
Ġyuris diksi
s ha
Ġs te
Ġr ukun
Ġv i
ĠKa y
ori z
ingin annya
Angg ota
Ġp ulih
tan k
Ġ8 3
Ġmengg ulingkan
ĠPe arl
ĠAleks andria
Ġs ki
se diaan
Ġba jak
Ġbert enaga
ĠIndo siar
S tr
in ing
ĠM ug
ja b
ĠC all
Ġbers em
enc ia
Ġstruktur al
Ġkos akata
C erita
kan toran
ĠM ap
ĠT ad
alam at
Ġl it
ĠC atal
ĠH ui
Ġdis el
ĠPen yakit
Ġdih ilangkan
ci o
Ġpat en
um erta
ĠT ower
et ty
ĠF ah
ĠPer ry
Ġmemb ahayakan
ĠAl li
Ġ18 00
wah i
bur n
ou w
ĠBa gaimanapun
Ġnasional isme
Ke tua
Ġkesep uluh
h as
ĠK lasik
ĠR eich
ĠG oth
ump a
ĠPr im
Ġ9 2
ĠTum enggung
opat ra
B ank
R om
kan ya
ĠK arier
et to
ark is
ĠMah mud
B en
K R
Ġke an
eh kan
ug uay
ĠPr esi
Ġman uskrip
bi otik
Ġmemberit ahukan
ĠJim my
Ġkejaya an
H ubungan
Ġd ol
Ġ8 2
ff er
Ġspesi men
jat uhan
Ġdrum mer
Ġvulkan ik
ĠJene wa
B als
Ġh er
ĠL ub
ĠL ock
Ġbi ola
Ġberb akat
Ġfil osofi
ĠTer masuk
ĠHel en
Ġprop osal
F r
H ak
Ġmen empel
ali kan
ĠTer jun
Ġterp adu
Ġjar um
ĠSu dir
ĠOb ama
ĠLat via
ĠVladi mir
ĠS entral
ep s
enda pan
Ġpeny ihir
ĠPas tor
ĠKes atuan
rik s
ĠIl linois
ĠMic ro
Î¿ ÏĤ
ĠWes tern
Ġperson il
Ġmen el
ĠA ven
ĠT unisia
ch ar
Ġters angka
sem burg
on es
Ġl idah
ĠH ud
os s
Ġmemper sembahkan
ĠTok ugawa
ĠMarsh all
Ġiden tifikasi
Ġd osis
Ġr ekayasa
ĠH ide
op ol
gr up
elah an
Ġå ħ
ĠAnd erson
ĠMes opotamia
ĠFrank furt
ĠBenedik tus
A lex
B ac
f ul
la ut
uc ut
Ġpenc egahan
Äģ n
Ġmenda ftarkan
K RI
ĠK laten
uli kan
Ġbelakang nya
amin aceae
ĠMaul ana
ĠTapan uli
Ġpendaft aran
s tein
at ulistiwa
al en
Ġka valeri
Ġeks pl
ĠMor ris
Bals aminaceae
Ï ī
Ġk utipan
ĠP enda
Ġg enggam
ist on
Ġmenye wa
Ġair nya
Ġtra ck
ĠSal v
Ġspesi alis
Ġmenghi bur
Ġdica but
M B
g l
Ġ ãĤ
ĠR aw
ĠH uman
Ġsem buh
Ġkem unculan
Ġpern apasan
Ġtand ang
ĠDom in
Ġdias ingkan
P ur
ĠX ia
ĠSte fan
Ġstabil itas
ĠP rab
ĠW right
ĠPada hal
Ġdep annya
Ġberjalan nya
Sek arang
Ġdija ga
Ġber evolusi
et ti
Ġg erbong
ĠW alau
Ġhi per
Tory mus
j onegoro
ĠM ut
ĠM uni
Ġkap as
ust ik
ĠKamp anye
Ġdiser ap
Ġgur unya
ĠHung aria
Intern ational
Ġt emuan
ĠB one
ed s
Ġmengh aruskan
ĠPr ia
Seb elah
ĠTom my
ĠFrank lin
odo h
ĠSpor ts
A mar
ol in
ul angan
ep asan
he e
emp ut
ĠYak ub
ĠYud ho
ĠAntiokh ia
K im
K eh
k estra
ĠZ im
Ġ7 4
ĠSte ven
ĠPed ro
N O
Ġ os
Ġr enovasi
ec a
ĠCh iang
ĠAs asi
und anya
Ġtrans formasi
ĠWil d
ĠCek os
Ñ ĥ
al il
ĠN U
Ġar wah
ĠFran z
ĠTau fan
k ab
z el
Ġt engg
Ġbis u
ĠDep uti
ĠEm my
Ġbe pergian
Ġco unty
ĠFir man
Ġkeponakan nya
Ġditak lukkan
Ġamun isi
ĠM ind
Ġmem injam
Ġmas ukan
Pen y
ĠSec ret
ĠBrus sel
T empat
g antungan
Ġp ek
Ġt ani
Ġju al
ĠAn as
Ġmengh ubungi
ĠThe atre
Ġis otop
ĠPela yanan
Ġimb alan
ĠSudir man
ĠP anitia
ĠJ ang
ĠH ut
eber angan
ĠPen yi
fr ont
ĠHer zegovina
Ġg luk
ep si
ika yat
ĠV a
Ġmemberikan nya
t ri
ĠA is
ĠK ent
ĠF antasy
Ġpr esi
ef isi
Ġseri gala
ĠKom isaris
ĠJo an
M iss
v est
tu ran
on de
ĠJ osh
Ġmemba wahi
ĠQ ur
ĠGu inea
ĠPrad esh
k ec
al li
ĠS lavia
ĠA j
ĠK anaan
ĠL evi
Ġkons titu
Ġrek tor
Ġterj ebak
ĠVol ks
b b
Ġk um
ĠK la
ĠM ai
ĠJ ak
tor itas
Ġmenyer takan
ĠMo ch
Pen didikan
Ġum pan
Ġeksi stensi
Ġcak ram
Ġk embang
Ġb eli
ap ati
ĠB anj
ek arag
ung ku
Ġseb er
man uel
Ġkl inis
ĠDis amping
Ġbus ur
Ã¨ re
as ir
ĠP NS
ĠB ebas
Ġpen andatangan
Ġpen damp
ela tan
pro vinsi
ĠPerk embangan
ĠLuk semburg
Ġin sp
ĠM oto
Ġ( &
ĠR itus
ika wa
Ġluas nya
ĠAd rian
ĠSaw ah
cas ting
K ami
g ata
tu juh
ĠA ragon
Ġmeny es
ĠBer satu
Ġ"( "
Ġaman at
ĠJer ry
r un
Ġin terior
ti onal
ĠL ahir
ĠF ly
Ġkont ra
ĠSp ir
Ġis yarat
Ġdesain er
Ġmor f
h ad
v et
Ġdi lap
ĠS ag
ĠS Ã£o
ĠK ekuatan
om oda
ĠJ asa
Ġked utaan
enda la
Ġag ensi
ĠPon orogo
Ġfisika wan
Ġkekh awatiran
w ir
un angan
ĠB urn
ro ke
ĠL ain
ĠH ana
ĠF land
ow ell
ĠÂ Ń
Ġberm ata
198 5
ĠLib eral
Ġac ak
ĠPolit eknik
ĠVinc ent
Ġaja ib
Ġp anduan
ĠH um
dis che
elu ar
D ik
k isah
bu wana
ĠB lan
ĠH ang
ĠG ed
lak inya
Ġeks ekusi
Ġberm otor
ĠDok ter
B entuk
R W
Ġ ãĥ
Ġmen um
ĠB agus
ĠN ak
Ġf as
ĠV is
ĠSin etron
Ġtulis annya
uara kan
Ġdu et
C N
P eri
ar um
ĠK night
gr ap
ĠZ eus
ĠCo oper
ĠBen jamin
ĠLinc oln
y im
Ġs m
ĠK ant
ĠC iv
Ġker aja
Ġan al
hi e
Ġsistem atis
ine e
ĠGi ovan
essi onal
c atatan
ba ca
it te
Ġmer ep
ĠC BS
Ġpen tas
ĠR iset
ĠR ukun
Ġkel ih
Ġti ada
ĠLaw rence
ĠCast ro
UH AN
ekarag aman
S R
l ov
ti ca
Ġkomp lek
jem ah
ĠJend ral
v or
ĠPer angkat
li ga
yar atkan
Ġterb entang
Ġben ih
ĠBabil onia
ib an
itt inggi
ĠGal uh
M al
f ar
n ot
p usat
ĠP dt
it es
ent in
Ġ8 7
yan ti
Ġnit rat
ĠSom alia
C H
N ational
Ġter ob
ĠO ver
Ġket enaran
Ġkomp onis
Ġkomp etensi
ĠAk un
Ġrek reasi
Ġpat roli
ges eran
N U
ĠB rig
ĠR uth
ĠF ame
orang an
ud an
Ġproduk sinya
Ġberkembang nya
Ġins tansi
ĠOt t
ĠMax im
enggelam kan
Ġmengu tuk
d era
g it
k urang
p m
Ġdi ungkapkan
Ġba ca
ĠH og
ĠSch l
Ġbertu lis
Ġim per
ĠBagh dad
s ana
Ġm omen
ak nya
Ġmem aks
eb ec
Ġ189 2
Ġs logan
Ġpen yam
ĠU RL
ĠCh ung
Ġterb ar
Ġmil iki
Ġtum or
akup an
Ġta yangan
ight s
Ġâ Ī
Ġperfor ma
D M
Ġmem o
ĠR ute
ĠPer c
ĠSh en
Ġmendapat i
ĠSep uluh
ĠSt ra
orn ing
K aw
Y ou
y ahan
en er
Ġj ilid
Ġg eng
Ġser u
Ġkes al
Ġja jahan
Ġberd urasi
Ġpengg alian
Ġgi la
Ġ188 1
Ġtemp o
Ġspesi fikasi
R ober
amp uran
ĠSur ga
Ġbur sa
tadi um
Ġketer batasan
Ġmengab di
Ġsensi tif
Ġk akao
ĠD ark
ĠR NA
Ġmena ikkan
ĠSoc cer
g uru
ek er
ĠE ra
sa wa
Ġbers kala
ĠDe ad
ci us
Ġmengg ambar
M is
p ohon
Ġh is
unc ing
ĠKe adilan
angs ungan
Ġkeb ahagiaan
ĠRus sell
ĠKristi ani
p ir
Ġmeng erahkan
Ġka wat
rom o
ĠRe za
Ġbersi ap
ĠMotor s
ĠSusi lo
P rancis
p os
ol us
ek e
ĠD as
ĠD alem
ul ir
ĠH om
ĠH ugo
Ġas in
Ġmemb ina
ic i
Ġpend engar
Ġdim ekarkan
tab ilan
ĠGer bang
Ġkela inan
Ġelekt romagn
ahkota i
ĠYudho yono
c adi
Ġs kandal
is on
ĠB RT
ĠN uh
Ġmenc antumkan
oc ent
Ġberp eng
angs ur
ogra d
ĠPat ung
resi asi
Ġtr em
Ġder ma
l emen
il lah
ik atan
ĠR A
eg ar
Ġc atur
ĠSe a
Ġ15 00
ĠThe ater
ĠNik ola
Ġgam elan
ĠJaz z
O s
j ima
l angkah
al ung
is nis
ĠP ER
Ġh am
Ġba ck
Ġc agar
Ġberj asa
ill o
ĠTh at
ĠGu adal
gra de
ĠDok tor
ovi Äĩ
Ġp ukulan
Ġse saat
Ġke gunaan
ĠN ab
ĠMan diri
Ġmin or
ĠSi am
tim asi
oro ti
ĠPo int
arget kan
H y
S urat
Ġmem ikirkan
Ġpen yu
Ġberb unga
ĠKemen angan
ĠAch mad
Ġberik lim
Ġdi ag
os of
Ġal fabet
ĠSh Åį
Ġmenj angkau
ĠThe od
Ġplas ma
Ġdramat is
p ung
Ġm iring
ik on
ula s
ĠØ§ÙĦ Ø
K as
T T
ik nya
ĠT omat
Ġmeng erikan
Ġdik etuai
Ġv ia
Ġkes us
af iliasi
Ġint ensif
ordin ator
Ġdiw ariskan
l Ã©
Ġs um
Ġt al
ing go
uk uhan
ula tor
wan da
Ġal marhum
enc ian
ĠCo ok
Ġtangk i
L ami
ga d
Ġke inginannya
Ġun juk
ĠAn om
Ġmel ukai
eles ai
ĠPerj alan
yr us
L C
Ù ĥ
ĠT intin
Ġr uf
ĠF en
ĠF all
ĠAn j
Ġpro sesi
Ġker ak
ic ation
ĠAb i
ĠUr uguay
Ġmendamp ingi
Ġk ara
Ġmeng endarai
ĠC H
eb el
ĠG om
Ġc ol
ena an
Ġbers umber
wal d
ĠBuk ittinggi
ĠNi as
SD N
Ġdile wati
ĠSido arjo
ĠUz bek
s am
Ġper budakan
Ġc abai
Ġan eka
ern aan
sk ripsi
ĠGregori us
A cara
Ġk enc
Ġt opi
Ġdi wajibkan
ĠSinga pore
Or ganisasi
ĠSil ver
ĠK upang
ĠB uda
Ġh ijrah
ung ut
ĠC atherine
ĠR amad
Ġbers amanya
Ġar sip
Ġperp aduan
Sebelum nya
Te ori
Ã§ ois
anag ara
C a
L uas
Ġr unner
ĠN ara
Ġw arung
Per janjian
Ġmemu askan
k ir
Ġb ap
ĠG um
Ġ18 91
Ġmat anya
ĠMon umen
ven tion
ĠPaul o
Wil liam
Ġmud anya
b ell
or ian
ut s
ri al
eb alan
don an
ib ar
Ġma buk
tic ons
low akia
Ġpuc at
ar ui
Ġdi eja
ĠK asih
Ġte g
Ġdim ilik
dis inya
Ġditulis kan
angeran an
ulia an
Ġkrom osom
Ġmari tim
A sia
o gram
Ġs anksi
Ġmen amai
ĠP ub
um entasikan
ĠB atas
amp anye
Ġmenc abut
ind ar
Ġcer min
ĠR is
ela jar
ĠAdit ya
V ideo
h r
Ä Ł
Ġ entri
at ha
Ġdi alihkan
ga wan
eg u
Ġkem asan
ev ich
uruh an
ĠMen y
Ã© s
ĠGe o
ĠBo x
ĠSet ahun
ĠKos ovo
lement asikan
etro it
M aj
h uruf
as tr
eng at
Ġ" &
Ġn u
id el
Ġser tifikasi
ĠSeb enarnya
Ġelek trik
ĠSemen jak
Ġsandi wara
B angunan
H er
Ġl onc
Ġla ser
Ġtim ah
ĠAs y
Ġprof il
ĠS ensus
Ġl ebat
ĠH j
ot eles
anj at
ec ehan
Ġkon versi
Ġ7 37
elak ang
Ġinter pretasi
Ġmekan ika
Ġil ustrasi
ĠPerh ubungan
Lam iaceae
Ġk embalinya
ĠM ungkin
Ġh em
Ġmer ugikan
Ġc orak
tic al
ĠAli ansi
ĠKem atian
Ġint ensitas
ĠJaya pura
Ġtend angan
ĠBoli via
on tan
es ti
Ġr evisi
ĠL un
th ur
Ġmenc olok
Ġpela t
omor an
ĠTe ologi
Ġ188 3
Ġb ent
ĠB p
Ġdic ari
ph one
ric t
Ġbel anja
ĠInt el
Ġmempercaya i
Lami ales
g ambar
k ecil
Å ¾
la c
Ġter se
ĠK ok
ĠC M
ĠF inan
ĠMis sion
olisi s
Ġny eri
un ani
Ġr int
op es
Ġal l
st and
ay anya
ĠLe ip
ĠBu ild
Han zi
e er
Ġd ev
eg er
Ġsem inar
Ġmol ek
ĠBah rain
Ġtek stil
ĠInform atika
ĠLegis latif
il ey
se telah
ata i
ĠL isa
ot to
ĠKu wait
Ġ188 7
ĠBab ak
l ong
o bus
Ġt at
Ġmeng anjurkan
Ġpen aw
angk o
li on
tus an
Ġlu cu
Ġpil ar
Ġkompeti tif
in ental
Ġmen emani
Ġpen ip
ab angan
Ġsej uk
emp lar
ĠBar ry
Ġkons ekuensi
ĠKi ev
Ġarke olog
Ġsangg up
K ap
K omun
d le
ti tik
Ġr uas
Ġba yangan
ĠIn sp
Ġas umsi
Ġar tefak
ĠDem i
Ġins talasi
ubern uran
Ġselam anya
Ġbala i
ĠSat urn
Musi k
Ġneut ron
k ed
m udah
do g
ama ah
Ġl egi
Ġr usa
ala s
ala yak
Ġdip indah
ĠDi perkirakan
Ġpengaruh nya
Ġtransp aran
Ġkeraja annya
ĠP K
ĠP anji
re at
ĠBer t
Ġpengh apusan
ĠLan ud
uad or
ĠOri ental
B est
j ono
Ġm om
Ġm alu
ĠD eb
ul aris
Ġpen indasan
ĠL ia
Ã¡ r
dok umentasikan
ĠHe ad
Ġ186 4
Ġdidi dik
ĠRay mond
rakar sai
v ed
Ġm angkat
Ġmen unda
ĠK arta
ĠU ganda
Ġdip amerkan
Ġal goritme
Ġmon yet
n ahkan
ĠB Ã©
ek o
gi han
ro me
Ġmemb enci
ma c
man an
inda s
Ġdiba ptis
ost rad
can egara
ĠKari m
ĠAnat olia
Ġmera up
A sal
f as
Ġdi damp
tu i
ĠK elly
ĠB UM
Ġmel ompat
ĠCh un
ber sama
erita an
ĠAk bar
Ker eta
Ġpengeb om
ĠDek larasi
d orf
Ġp ak
Ġk op
Ġt est
ĠC u
ĠH old
Ġbah u
end ing
ĠIs h
ord er
ĠJuli us
Ġpenc etak
ond ria
Ġfot ografer
Ġmenu turkan
ĠPres ley
Ġketida ks
Ġ ed
Ġb obot
Ġdi uji
Ġmen anyakan
Ġw ah
ĠO d
Ġker is
Ġgug atan
Ġac uan
Ġpir amida
ĠHist ory
E G
Ġdip entaskan
Ġmurid nya
Ġmena iki
untuk kan
l uka
v ol
ĠL ag
198 8
Ġ187 1
Ġtet angganya
Ġden ominasi
tisi da
ĠAlf onso
C ap
Ġ ejaan
ĠP ustaka
ĠK astil
ĠCh ad
Ġterh enti
ĠAc t
ĠHa ag
Ġran ah
il et
ra ch
ra jin
os ongan
ĠF ari
aj o
Ġta at
pro yek
Ġrel evan
ejar ing
app y
p rise
ĠS ui
ĠP ip
ĠL eop
ĠF our
ent illa
Ġser tifikat
Ġpr emi
su i
Ġalbum nya
gra fi
dag angkan
A yah
k ing
k egiatan
Ġk isaran
ĠS ubang
Ġter lambat
ĠL emp
Ġmel impah
Ġal un
Ġdia badikan
Ġbulan an
198 3
Ġinves tigasi
Ġberda ulat
Ġmetabol isme
p ensi
s yat
Ġ est
Ġm antra
ĠC av
Ġkali an
ast ro
Ġco ver
P utri
an us
Ġd ec
ul d
ĠL istrik
ih a
ĠEl ectric
Ġab sen
Pot entilla
Q u
m ing
ĠS P
ĠS ye
wa gen
per ang
ant el
ĠSe attle
Ġberb alik
Ġman canegara
ĠÂ ·
ora do
Ġreg ulasi
Ġdirek rut
omoda si
Ġdimilik inya
9 00
ĠK rab
Ġh ama
ro e
Ġdip uji
ĠMar ch
ev o
Ġberp akaian
ĠKep ausan
Ġpenc ernaan
ĠSen na
iladel phia
ĠCritic s
l oid
q a
y g
ĠS uhu
ĠB eck
Ġper antara
Ġpem akai
Ġas as
ĠMen jadi
Ġä º
Ġev aluasi
yll idaceae
B urung
Å Ħ
ĠT ek
gi on
Ġl embar
Ġser entak
th ia
Ġberj enis
Ġdic ulik
Ġ187 8
str ong
K O
is er
lam annya
ĠL aki
Ġsek ian
Ġkon k
Ġberk ekuatan
Ġal b
Ġv eteran
ase jarah
Ġtersi mpan
serv atorium
ĠMaga zine
W h
k abel
l iter
ol lis
ĠK alau
Ġin donesia
Ġmeng usung
Ġkem ah
Ġmengh impun
Ġditu tupi
ĠUp aya
H anya
L iga
P hy
p ara
Ġ om
em ai
al bum
Ġpen anaman
ih araan
ĠW it
Ġmene gakkan
vel t
ĠTu gu
ĠPurw orejo
Ġdinik mati
Ġdidamp ingi
S un
T o
da le
Ġper alihan
Ġkali ber
Ġmengh arapkan
Ġeks emplar
ens asi
ĠEng lish
Ġreli ef
ĠPu erto
ĠPho enix
ĠSanti ago
Ġpengkh ian
K egiatan
el aran
Ġpen embakan
ĠR UU
ĠN ico
ist s
ĠPr aha
Ġseri bu
Ġå ®
ĠSte wart
ĠBal tik
ĠJa uh
ĠRegi on
H en
Ġt angg
ah e
ĠM D
ĠT UHAN
sa udaranya
Ġ10 5
ĠSun ni
ĠMor gan
d h
s ampai
ĠR up
ha el
Ġberkom entar
e uk
z aki
al ek
el and
ĠM itch
ĠSe v
Ġpeny elamatan
Ġmemp ublikasikan
res tasi
jaks ana
S im
ĠP ajak
Ġ" &#
ĠR M
ĠDi am
ĠSeb anyak
O b
P erb
T op
j arakan
Ġter i
ĠSe bab
Ġseperti ga
eda m
Ġpe doman
ĠLu buk
Ġmember lakukan
Ġ188 2
ĠNich olas
Amar yllidaceae
D istrik
ĠJ udul
ula sinya
Ġterp usat
Ġperi odik
ĠMex ico
K an
r ul
ing annya
Ġg et
id on
ant ho
Ġpem andu
Ġbi bir
Ġkomp utasi
Ġtur bin
Ġkekasih nya
tream ing
r ir
Ġp aku
ĠS aka
ĠB ulu
Ġmemb iayai
ĠAr e
Ġ- -
Ġdil anda
Ġp ustaka
ĠK ag
ĠI U
ĠT indakan
Ġseh arga
aj aran
ĠMat ematika
Em pat
Ġpen anggalan
ok ong
Ġterc epat
son o
ĠKap ol
ĠCen tury
Ġs ap
kan al
Ġbers ahabat
enda ki
Ġger ai
ĠSp eed
af siran
pem impin
emuda han
C an
ĠB oro
Ġpeng umpulan
Ġberk ulit
ĠSh aw
Ġkh alayak
ĠKr ist
Ġpel iharaan
An tara
Ġmenurut nya
ĠÎ ±
yon ya
ĠAdam s
ĠRat na
Ġeng gan
Akhir nya
L ept
ĠP om
ĠB eg
Ġper adilan
ĠI BM
ĠT anda
Ġg l
Ġmel engkung
Ġdis ebelah
ĠEks pedisi
Ġsing gah
ĠZh ong
ĠWah id
ĠStock holm
S esuai
n ada
ĠS ena
ĠP ena
ĠD yn
ut y
et sa
ant ina
Ġka fe
Ġterp asang
Ġterc apai
Ġberc ampur
Ġproto tipe
ĠLeip zig
Ġp angkal
si d
Ġber alamat
ĠP ab
ĠB B
ĠT in
et es
ĠG Ã¶
Ġ18 93
ĠAt en
198 6
esu it
197 8
Ġmengor bankan
Ġpene kanan
Ġdipering ati
Ġseber apa
, )
Ġber bau
ĠM ess
id rat
Ġas uhan
he a
og ni
Ġdis aksikan
Ġdia jak
Ġmil itan
Ġkas et
Ġpenguasa an
Ġpenaw aran
l ung
di dayakan
ĠM B
ĠM asih
Ġmer intis
ĠY ama
ĠPer wira
amb al
Ġmengh uni
ens or
Ġperc etakan
Ġev ent
M i
Ġmen ek
ĠT atar
Ġpen afsiran
ĠAn a
Ġfil osof
ĠHal im
yo ung
ĠTor aja
Ġimp lementasi
Ġup ah
she vik
Ġ Ùħ
Ġber tani
ĠH eb
tr aksi
ac t
ĠAngk asa
ĠSy iah
Ġkesa lah
Ġpor os
A U
K ur
Ġh ilir
gu e
ĠVal ley
ĠAven ue
. ),
Î ³
à ¥
Ġk satria
ĠK ast
Ġ1 19
ĠN elson
ĠEd uc
Ġy ou
ĠHam engku
ĠMul ti
á» ĩ
ĠTum buhan
ĠOper a
Ġsebaik nya
E r
m il
r aksi
si c
Ġc c
ud u
ĠV isi
ĠAs tr
ĠMat the
Ġsisi k
Ġmendek larasikan
elim inasi
ĠPerl indungan
ĠEc onom
Ġt omat
Ġmer angkap
Ġmeng utus
ĠL una
Ġmeny ir
Ġas ter
ĠIni lah
Ġpendukung nya
Ġgul ungan
em aran
ĠP le
us hi
Ġmeny eluruh
isa lah
Ġpemb aruan
uc ian
ĠJo urnal
ĠSch umi
tic s
Ġop ini
ilh ami
k am
se x
ĠN is
ĠAr c
Ġdit entang
ĠAl or
Ġdiper untukkan
Ġpemb eli
ĠAg ency
ĠZ o
iri kan
Ġkeber anian
Pert andingan
Ġfleksi bel
ĠPerjalan an
O leh
Ġp ura
Ġdi angkut
ĠN ad
Ġc an
ber ia
15 0
Ã³ w
Ġkepem impinannya
198 4
ĠMag ister
Ġir ama
ĠSol ok
Ġt ril
un ahan
eng si
ĠM ati
eh abil
ĠJ urnal
ĠH osp
and r
Ġpem entasan
Ġker ang
Ġdis arankan
ĠHer ak
Ġmembu barkan
g ol
ang er
ah n
ĠM im
ĠJ et
ĠR oll
usah akan
ĠKem ampuan
ĠCarl o
ĠBeng ali
Ġpersep si
ĠJok owi
P et
Ġ Ì
ĠB ack
Ġl upa
Ġl ancar
ub ishi
ĠW ur
Ġ18 30
Ġbert ingkat
lik asikan
Ġpel ecehan
sama an
Ġbuatan nya
ĠP ejabat
ĠK O
Ġl antaran
ĠC alon
ĠJ ulian
Ġdik isahkan
ses an
ologi cal
Ġjalan nya
lap is
Ġop timal
ĠBas uki
ĠLov ato
G a
Ġmen amatkan
ĠA lasan
Ġin dikator
Ġh amba
os c
Ġw ell
ĠE xt
Ġpem angku
ont ar
ĠKeh idupan
S il
j angan
k ak
or tasi
ĠK od
Ġ18 50
Ġtel anjang
Ġth riller
ĠMoh am
Ġrepres entasi
Ġbij ih
G i
Ġber aliran
ing o
Ġr inci
Ġc enter
ch eng
ĠO rig
Ġan at
oh arjo
Ġv akum
dik bud
Ġro tasi
Ġbek u
Ang katan
Seri al
K eber
Y A
c ard
f en
Ġk ian
ĠJ aksa
ok er
op las
angg anan
Ġ3 000
Ġmaka lah
hogun an
ĠCekos lowakia
R adi
h ya
ĠK anj
ĠB aja
Ġberk eliling
Ġkor e
tegr asikan
wujud an
S eluruh
ĠP eg
Ġter ak
Ġpeny usunan
Ġpela wak
ne um
Ġtert inggal
ĠOx y
odin amika
Ġcel ana
Ġmengut amakan
k un
n om
Ġdi pertimbangkan
ĠD etroit
ad ing
Ġseh ubungan
Ġberp osisi
Ġ9 4
Ġjasa d
Pa ul
L M
Ġmeng el
ĠF ire
Ġmelihat nya
Ar thur
akh ta
B at
ĠB ha
Ġl intang
ĠG uan
ĠF itur
isi a
Ġseb anding
Ġditu m
ĠRo ose
mb angan
ĠStand ard
m obil
ĠS O
ĠS yl
Ġ" -
ot ret
Ġan ugerah
uc u
Ġtra gedi
Ġketer sediaan
elop ori
k ura
y ch
Ġd urasi
tan egara
pen ulis
ĠBab y
enh agen
Ġleb ah
ĠBoles ÅĤaw
k ur
z awa
ĠR al
Ġpert olongan
Ġdis in
Ġterb ilang
ĠOr gan
Ġst art
ĠMei ji
Ġim igrasi
Ġpot ret
ĠGrand e
Ġdiber it
ĠMatthe w
K emen
U s
n d
on disemen
ĠI rian
Ġmeny oroti
Ġka itannya
Ġsek umpulan
Ġak ut
entu re
ĠSp e
Ġdif ilm
Tan ah
Ġd ebat
Ġk ob
al ar
Ġh alam
ĠN okia
ali on
ala k
J an
J ames
m ore
z ak
ang el
ĠGa za
Pers ero
ĠSala tiga
ĠAmaz on
i lah
or al
Ġpen dahulu
Ġn ame
Ġpem asangan
Ġpeng emudi
Ġ7 9
ĠDe ath
Ġmiliter nya
ĠBo ul
ĠPeter sburg
Ger akan
Ġberak ting
ĠSpec ial
W a
x us
ĠK Åį
Ġper geseran
Ġun ta
ĠL ith
Ġka u
emp ar
ode on
ĠLa ura
Ġteor etis
V A
Ġb ujur
ol ep
ja y
Ġl ilin
ĠN yi
ĠL ep
op tera
), "
he wan
Ġkes aksian
ĠAd ri
ĠBi asa
ĠTomat oes
B ulan
g s
s han
um ental
ĠK PU
ĠW o
kt ika
arn asi
Ġpember sihan
ĠNe o
Ġekspl isit
D es
P end
Ġd estinasi
er inya
la u
la w
Ġper undang
ĠT I
ĠR ela
eri fikasi
Ġsosial isme
vi us
ĠBroad way
Ġsosi ologi
ĠChap lin
ĠArist oteles
ĠOtt oman
á ĥ
Ġp ub
ada ya
on ic
ing ung
it un
Ġh eran
Ġmer k
ĠL enn
Ġda ur
Ġpel edak
Ġbon us
anag romyza
R O
S L
r Ã©
Ġper kantoran
Ġpeng ec
ĠAl iran
eta c
Ġkam us
ĠCon trol
ĠLet kol
Ġur anium
pons ori
Ġbersik eras
v ic
ĠD og
amp as
ob ar
ou ver
ĠPh iladelphia
Ã¼ l
ĠWar sawa
ĠSl eman
Ġpac arnya
ĠSib eria
Ġfem in
ĠRoose velt
P asukan
Ġb os
ĠA K
Ġmengg el
gak uan
198 7
Ġdisk riminasi
Mer upakan
Ġdek larasi
S um
T om
ĠL yon
isan s
Ġmengin jak
Ġpengan iayaan
ĠL l
ĠAr sitektur
Ġkeb encian
Ġsin te
Ch arl
Ġmempert anyakan
Ġsur ah
ĠØ ¨
oriz ontal
Ġt ang
Ġt engkorak
Ġf it
ch ange
Ġka der
ĠPen e
Ġek st
Ġmemas ok
ĠKur di
Ġberdamp ingan
Franc e
L u
ĠM ula
ĠT ap
Ġmemb icarakan
Ġsel ir
ĠAp likasi
oy al
ĠSin ar
bah arui
198 2
ĠMi G
organ isir
m eskipun
ĠR ia
ĠH et
D im
v as
y ph
Ġp utusan
un dian
ĠS ind
ĠB ai
ĠB ina
ĠD jo
Ġba it
per cayaan
ĠF iraun
Ġseb entar
end e
Ġdiper s
und ing
Ġbin ti
ĠSas uke
ĠSci ences
organ isme
Ġpendamp ing
d rum
p ihak
Ã ®
Ġ @
tu ag
di o
Ġber afiliasi
tr an
ĠO toritas
ĠV el
Ġkel iru
dus er
ĠDir ilis
ras asti
Ġpew arna
ĠRhe in
ĠRamad han
O perasi
r utan
ĠS port
es sa
ĠK ana
ĠD ick
ilm uan
isi k
Ġdis en
Ġdim ungkinkan
Ġpes anan
ĠKam er
ĠCharl otte
ĠFi eld
ĠEv ol
Ġbik su
Ġsamud ra
M ark
Ġs ilik
ĠS AR
um sikan
se c
Ġn apas
ĠL intas
urut kan
ĠKat h
Ġkor ona
Ġkul tur
Ġteks tur
organ ik
ĠBund es
Ġparti si
S O
c is
re z
Ġal tar
Ġar oma
isti mewa
sis tor
Ġkeber angkatan
ĠSte p
198 0
Ġpembu baran
Pemb angunan
Ġkotor an
Ġmemf asilitasi
İ le
Ġm ono
ĠC iri
ĠH ij
ungsi kan
ĠTai pei
Ġs ho
at atkan
am uan
ek alan
Ġmeng olah
ĠN ow
ĠSe bagaimana
Ġag enda
ĠSt atus
ĠSp r
Ġhalam annya
ul uan
ĠG ary
Ġbert ekad
ĠPro t
bad at
Ġdin osaurus
Ġdid ek
Ġakting nya
Ġs usah
ĠS und
Ġber in
Ġj ejaring
Ġmer ef
Ġf o
Ġpeng angg
Ġdil epas
ĠAri fin
Ġsit kom
Hong aria
E F
S ub
T eks
T abel
V ol
Ġ gai
Ġb atin
te ga
Ġf armasi
Ġdip elihara
Ġterp utus
Ġmagn etik
pe are
ĠArt inya
ĠHas san
Ġdilap isi
Rober t
ehabil itasi
C ara
Ġt ong
Ġr ongga
ĠL ake
ĠAr my
ĠAng ola
ff a
Ġberg engsi
ĠHam burg
ĠBantu l
Î ¯
ĠJ ul
ĠR embang
Ġka dipaten
ber ry
ĠAng lo
ĠMan uel
ĠSi ak
ser ing
Ġmay or
ĠMel ihat
ĠUk uran
Ba gi
Kon sep
ĠPin tu
ĠGiovan ni
Ġp uasa
Ġse pertinya
Ġmen impa
ti e
it on
Ġju jur
ĠF eng
ch es
end ung
ĠKar angan
Ġpel antikan
dam ai
ĠEk uador
ĠMari o
ak us
ja wa
Ġpem ancar
ĠW ho
oh en
Ġdia baikan
ĠBel la
ĠBer k
omat ik
Ġrela si
Ġrap per
ĠAut obots
Ġing gris
ĠMuni ch
U K
f ace
Ġke esokan
Ġke jatuhan
Ġper esmian
ĠJ ian
se i
ud y
Ġkem akmuran
teri ak
ĠX III
sek ali
ĠPemb antu
adam kan
orban an
F il
V i
r ary
ak ala
Ġr asanya
ĠDe ep
sel ir
m uk
p ang
Ġ anj
ĠP urn
ĠA le
ĠD erby
Ġla da
ka itan
ĠDi ana
Ġdiper barui
Ġ187 2
Ġmenda lami
PS N
Ġimp ian
ĠDok umen
ĠSeg era
n h
r uk
Ġber gantian
it ro
ĠI o
Ġkes eb
Un ited
una ga
ĠWar s
ĠGab riel
h ay
en os
in tus
ing ungan
ĠK PK
ĠT iger
Ġr agu
ĠG yeong
Ġpem indahan
ot omi
ala san
li f
art ment
ĠVal encia
Ġkebi jaksanaan
Ġdidalam nya
Ġd sb
Ġt am
ĠP ec
Ġper awat
ong eng
ed arkan
ĠPer encanaan
Ġdis ponsori
ĠPro v
ĠKomp etisi
at wa
ĠM RT
ĠC row
Ġan umerta
ĠJac ques
Ġtop ografi
Ġpenya jian
ĠSol omon
Ġdet ektif
L o
at en
ĠM Ã©
ĠR wanda
ĠW omen
ĠY us
ag h
Ġkem itraan
Ġsin emat
ĠKomp i
Ġlar as
Ġbund ar
Ġketert arikan
la b
Ġs tar
Ġmen afsir
el odeon
ĠAn ugerah
ĠPr ince
ĠTemb ok
C he
J a
Ġdi ad
ĠP sik
im ar
Ġl ic
ch ia
ad anya
Ġpr asejarah
ĠOr gani
form is
rama yu
ĠMÃ¼n chen
W in
p as
Ġ ima
Ġdi dan
ĠJ ustin
Ġa bor
asa i
ant in
Ġc akupan
Ġw al
Ġpeng gantian
Ġberk ala
ris h
Ġ187 9
Ã¤ r
b ing
Ġb h
ri f
Ġpem utaran
ĠV as
ern ih
Ġisti adat
Ã§ a
akes peare
K arier
W I
as em
ĠS iliwangi
is in
ĠK BS
ĠM enc
wa wancara
ĠF ood
Ġpem eluk
Ġmeny el
Ġdib ongkar
zz o
ĠJon as
Ġprogr esif
ĠP od
Ġmeng ungkap
se in
erikan an
Ġdin amika
Ġleg al
Ġtur bo
Ġmo tivasi
Ġpelunc ur
Sep anjang
ĠGala xy
GB T
Ġmen elan
ĠP aya
ĠK embali
Ġh ir
ĠBo jonegoro
ĠBut on
ĠLam ongan
j k
y pe
en ni
tu be
es ahan
ĠP emenang
ur s
Ġmeng gi
Ġsa yangnya
tr ia
Ġpeng operasi
ura u
ĠX iao
Ġmekan is
ĠSystem s
Ġeksperim ental
Ġmelemp arkan
Ġlet nan
Ġdidan ai
c era
ĠM isa
im oto
Ġ3 60
oh ong
ĠSek retariat
bi e
ĠSen ator
ĠTr aktat
rag ukan
ĠMc G
Ġpeg ulat
ĠAbb asi
Ġd alang
Ġd egradasi
ĠP E
ap ian
ĠL angit
Ġg ilir
ay ana
ha e
anc y
nis un
Ġtekn isi
Ġtab let
Ġmenembak kan
senjata i
ĠWW E
M art
l Ã³
as y
Ġper orangan
ok al
amp ton
he el
ĠZ ak
ĠIl ir
mat ik
Ġpenerus nya
ĠAug ustus
Ġnar asi
Dav id
j ok
p le
ĠA in
ĠB eth
eg el
Ġc up
tan ce
Ġmela cak
ĠAl um
ĠMen ga
ĠGor yeo
bol inggo
ĠStan ley
Ġdifilm kan
h anya
Ġm arg
Ġk ena
Ġh obi
Ġ8 9
ĠTi ti
Ġkek ebalan
ess or
Ġketer gantungan
ĠYuda isme
C inta
S w
v Ã¡n
ĠB asket
Ġl engk
ĠMar os
Ġpeny ediaan
Ġap arat
Ġhadi s
Ð¸ Ñ
Ġpenyang ga
er ensi
or ama
Ġper buruan
ul yo
ĠL anc
ĠO gan
Ġdiper lakukan
Ġpun k
ĠLu wu
etu l
ĠSak ura
ĠBob by
Ġ urut
Ġ esai
en zo
or nis
ĠK anton
pat ib
ĠG empa
ĠE rik
Ġmat riks
Ġdig it
ĠBo ard
ĠPh ill
ĠKeh utanan
Ġpecah nya
Ġping san
ĠPelaks ana
efisi en
M eri
m ela
u wa
en es
ĠK endal
ĠB uck
od d
eli x
ĠMat h
Ph one
P ap
e dian
Ġdi ragukan
un ter
ĠP eople
ĠF ab
Ġc intanya
eli us
ĠDa ily
ĠKh mer
kar bon
ĠTrans portasi
ĠJon athan
ĠCho ice
Perk embangan
ĠPenyi aran
tuag inta
F estival
ang u
Ġb ingung
as o
di b
Ġj as
ĠC B
ĠN ash
Ġpeng iring
ĠKr itik
ĠHe alth
ĠBe ograd
Ġhomos eksual
Ġelektromagn etik
G edung
ada s
ĠI beria
ĠT ara
Ġh op
Ġr ed
Ġpro tagonis
ob os
og aster
lan k
Ġdih apuskan
Ġkl inik
Ġmus yawarah
arn egara
amat o
ĠHo uston
Ġop si
ĠPerh impunan
ĠFil safat
R ich
g ender
Ġdi antara
Ġse wa
ur as
ra v
Ġkep unahan
ĠV in
Ġdidirikan nya
Ġhak ikat
Ġpat ogen
Ġ186 1
ĠBroad casting
ĠKeber adaan
Ġredak si
k ati
l umat
Ġp esi
Ġpen obatan
ĠR eli
ĠR esiden
and e
ĠU TC
Ġpeng adaan
ag ung
ĠRe aksi
Ġæ ľ
ĠBol shevik
Ġmemec ah
esm ia
ĠAB RI
Ġmad rasah
Ġorn amen
Q uran
Ø Ń
Ġ yat
Ġh utang
emb un
Ġker ucut
Ġdih argai
dis trik
Ġari st
Tun es
Ġkean ekaragaman
A wal
Ġm g
op ros
ip ennis
Ġdit eliti
ĠAg am
ĠPr ime
ĠBer kel
ell us
Ġdih aruskan
Ġob li
Ġkat alis
ĠKeb on
Ġfr ont
ĠWal lace
Ġmenjelajah i
E ng
ĠM inyak
ap annya
ĠH ey
ali ta
Ġw e
ĠAg nes
ĠProf esi
Ġrup anya
kep ala
Ġberak ibat
D O
J A
b alan
f it
Ġ ingat
Ġmer umuskan
ĠN er
ĠG ul
ĠW ing
man ia
Ġdatang nya
bak ala
Ġbeb ek
ĠCon ference
kh usus
Muh ammad
Å Ľ
Ġs akti
Ġk okoh
Ġk emudahan
Ġdi anjurkan
ĠB arang
Ġper wujudan
ĠJ emaat
ĠR oth
Ġmel odi
og n
Ġkem iringan
anc ah
Ġtak si
ĠTi ap
ĠâĢĻ .
bo ok
ĠKem ungkinan
Ġpari t
cadi on
Ġgai b
Ġgilir annya
p il
ĠG ambar
ula tus
Ġmemper mudah
engk ar
Ġberm uara
ĠDan ny
Ġkat ak
Ġkat alog
ĠSer ver
ĠEur opean
put ri
ĠStor e
ĠRud olf
ukas us
P terolophia
ĠA bang
ĠD ara
ĠE un
ĠE va
ĠV ar
Ġres pons
ĠX ian
mp h
Ġangk ut
ĠPD B
ograf inya
F O
Ġd eb
si tus
Ġke emasan
Ġber na
ik aian
ĠP ia
ĠP terolophia
ĠB ou
ĠI z
Ġf an
ĠPer intah
Ġkem erahan
adi ran
ĠSem akin
Ġsat upun
Pem bagian
Ġwajah nya
Ġteror isme
Ġsedi men
k elas
p utih
Ġt v
ari t
Ġin ov
ĠM orning
ĠI gn
ĠC ut
Ġker um
Ġsem ester
ĠQ uan
Ġberm usik
Ġmak mur
Ġpener jemah
ĠKap uas
ĠÃ İle
Ġtem urun
ĠGra ce
Ġt our
si stem
ĠN aj
ud er
Ġ4 50
Ġmil isi
ĠTer itori
Ġel ang
har ma
dok umen
Ã¨ s
ĠCan ada
ĠEng land
Ġtar ekat
Ġmelingk ar
g ua
k ap
y uan
Ã ²
Ù ĳ
Ġmem intanya
Ġf ondasi
uh a
res olusi
Per mainan
ĠSeb astian
SM AN
eni us
ĠBra wijaya
Ġamf ibi
Ġfilosof is
d or
f ol
si f
ĠS to
ĠI ron
ch ester
ĠAl m
ses u
ĠKr ish
Ġen ak
oph y
ĠBen ua
ĠCap e
ĠAnton ius
Ġeksp lorasi
P H
Ġj in
ĠAl onso
ĠMe kan
ĠCar r
Ġmatematika wan
j et
Ġse imbang
Ġin c
Ġl aris
Ġf atal
ĠH orn
ĠF ull
eri or
ĠUm at
ĠEm ma
Ġtur is
Ġ186 7
Ġinduk nya
ĠGreen land
Ġmenges ahkan
ĠJessi ca
D onald
H am
r ana
Ġber dasar
ĠK is
ĠM ust
Ġmer ata
ĠC ong
Ġdip icu
ĠAs li
ĠPas uruan
ĠMenurut nya
Ka isar
diskusi kan
ĠâĪ Ĵ
G C
s erta
ang or
ak ura
ol es
et ris
ĠR upa
Ġju bah
ot asi
ip as
re kannya
ĠCh andra
Ġmengg antung
Ġmerek omendasikan
Ġpeda s
Ġkonstan ta
ĠMoj okerto
A tas
C omp
K eluarga
il iran
ĠX av
Ġsp ontan
Ġsat wa
Ġ187 6
Ġoper asinya
Ġtran sit
Ġsesudah nya
Ġflu or
ĠDec ep
Ġhier arki
K ini
P enc
k ode
Ġm angk
ĠS N
ĠM antan
Ġpeng rajin
ĠY in
Ġberp angkat
Ġek stra
ĠSt ation
Ġbisnis nya
P antai
Ġb lu
Ġdi usung
Ġmem antau
ĠI wan
Ġh uman
ĠW ith
gu g
Ġterk aya
ĠX uan
ĠFr aksi
ĠHol land
ĠBak er
ĠId ris
ĠFransis kus
P ri
u ja
Ġ ana
in ati
Ġt ingkah
ĠS co
ĠM itra
ti co
Ġh orizontal
ĠE instein
Ġkep eng
Ġdit emani
ĠDa ve
ĠSen tai
ĠEl ectron
ĠSk adron
ES A
ebri ti
Ġbertulis kan
A v
Ġber lalu
ap arkan
eb ang
ab ah
Ġant ik
uc uk
ĠAb d
ĠPert unjukan
ens on
Ġkeker abatan
ĠKak ek
ĠArm strong
alung un
at sch
Ġse ason
bu dur
Ġr ugi
Ġa z
ĠPer sek
aris asi
Ġmengk hususkan
ĠSat elit
Ġwar ganya
O m
Ġmen trans
ĠK now
Ġg or
Ġa donan
Ġpr as
Ġdir intis
Ġdir enovasi
An th
Ġib undanya
Ġ187 3
Ġwafat nya
Y a
Ġp seudo
Ġor kestra
Ġdis amakan
ĠCh op
Ġkem unduran
kt ik
ĠSam sung
ĠPal e
ĠKu ta
Ġkil ogram
ĠBh utan
Ġdiber hentikan
F ir
un ch
Ġber adaptasi
Ġg antung
ĠG B
ĠCh ong
Ġpeny el
Ġar ondisemen
Ġek ologi
ĠEn de
ĠSum mer
ush u
ĠAri zona
ĠPin ang
Ġkre ativitas
Ġmeta f
abet es
ĠKart ini
omposisi kan
ĠMerc edes
ĠBUM N
J enderal
l angga
Ġse lat
ĠP erikanan
ĠN es
uan ia
ab harata
ĠV ul
ĠSek ali
elah ian
ĠDe ut
Ġkak u
ass us
ĠCom edy
Ġgi zi
mah era
Ġbir okrasi
Ġdikon trak
g in
y th
as et
Ġter ku
Ġberk onsentrasi
Ġmemper lakukan
Ġtanah nya
edi han
ĠStudi es
Ġkebang gaan
Tim e
P eter
Ġb es
ik kh
ĠT itik
ĠN op
Ġpem as
Ġpeng ucapan
ĠPr at
Ġberm unculan
ĠYo sef
198 1
ĠHas yim
Ġpre dikat
Ġtol eransi
ĠKle opatra
teb rata
Ġkoment ator
Ġb ec
Ġdi ur
ent r
ĠY uk
arta bat
Ġtim e
Ġpeny embuhan
ĠDe an
omb o
Ġkas ta
astra an
ĠTujuan nya
ladi us
R as
Ġber eks
om ya
ĠN O
ila inya
ĠOr der
umen ep
udd ha
Ġmobil e
Ġdisi mp
M r
S ri
ĠI KIP
et z
ĠJ ar
Ġpen ataan
ĠN ir
ĠIn n
ĠG ap
and ro
Ġsek te
Ġbert em
ĠLe iden
ĠGen erasi
Ġprak tisi
ĠSej arawan
ĠTem anggung
Ġditim bulkan
ar es
Ġm aya
Ġber urutan
ot es
ingk ali
ĠUS D
Ġpersi langan
ĠHill s
Ġmengeksp resikan
K ek
T u
Ġb uaya
ĠM egat
per ma
ch u
ĠO SIS
Ġkes uburan
ev aluasi
Ġperusahaan nya
iri omyza
ĠSi fat
ĠRa o
Ġtangk ai
Ġmedi tasi
ĠRang ers
N or
Ġ one
ĠK ill
up e
ĠR angga
Ġf ederasi
he ed
Ġkes etaraan
Ġ18 48
ĠSh akespeare
ĠSin ode
Pa us
ĠBour g
a yah
h ib
la tul
ĠS imbol
ur y
ĠT entang
ĠSe an
osi r
Ġked ekatan
ĠSo ul
Ġditemukan nya
Ġbeb atuan
ĠGa ga
ĠAlex andria
ĠMi ami
ĠTrans form
ĠPu isi
ĠNeder land
Ġm ust
Ġm egah
Ġm anif
Ġdi aku
Ġdi ingat
ĠAs al
sk ap
Ġsub sidi
Ġbe tapa
Ġ186 8
hy un
ĠRes ort
ĠKeh ormatan
ĠMcL aren
L ee
m s
un ta
ĠD wi
ĠG T
Ġmenc ulik
bab an
bur ung
ĠPa v
Ġpener angan
Ġdij atuhkan
Ġpat ut
ĠEd in
Ġmengin spirasi
ĠHi er
sol ut
ocent rus
C al
d ewi
in ame
Ġber daya
um ent
ĠD ona
ĠJ ulia
id ge
eri c
ĠE is
ĠW er
angk as
Ġkeb ingungan
Ġpusat nya
ĠAustr alian
ĠPela jar
Ġmendi stribusikan
Ġkapital isme
ĠLetak nya
D C
H I
M ata
P ern
k et
Ġter mal
us ter
Ġpen embak
Ġr ingk
Ġv s
ĠAnim ation
Ġmemp elai
Ġdaerah nya
engk ang
Ġmengk onfirmasi
Ġradio aktif
Ġperc epatan
Ġder et
Mich ael
b elas
Ġk enangan
ĠM AN
ĠM BC
ot ok
lan e
Ġkes en
Ġmikro skop
ĠFland ria
Y unani
s ka
ar dian
Ġc uma
Ġi Tunes
ĠBel arus
ĠKat e
omb olan
tim eter
ĠInd ramayu
ser vasi
ĠZh eng
Ġujung nya
B oy
G ood
K ab
R ed
d Ã©
w ung
Ġter umbu
ap olis
ĠC ath
ĠR ancangan
ĠU GM
amb ak
Ġdip ekerjakan
Ġpeny isihan
Ġsar ung
ĠBad en
Ġ185 9
ĠPres tasi
Ġpeti r
Ġran jau
ĠBM W
H o
P asal
Ø ¹
an as
ĠC s
ĠW ono
Ġpas por
Ġdiper siapkan
Ġberp ura
Ġdij atuhi
ĠPart y
kas us
Ġt in
is ch
ĠD R
ĠT unggal
ĠG iri
ĠMad e
ĠPener bit
Ġgemb ira
si g
on ey
or et
Ġke ilmuan
ra ya
ev e
Ġja jak
utus annya
ĠSir kuit
M T
h os
l okasi
y Åį
Ġp akan
Ġp ompa
Ġdi und
ga dir
ĠN PSN
ĠH ind
Ġpeng hancuran
ad es
Ġmemb enarkan
ob el
Ġbi jaksana
ĠKor em
men y
tum buh
197 9
jalan an
Ġresi men
ĠNick elodeon
Ġpep ohonan
Ġruntuh nya
ĠGuadal kanal
D R
D anau
c ong
Ġ asa
ĠT ali
Ġmer angk
ĠN anjing
ok asikan
ic er
ĠPr ima
ĠSal uran
ĠDari us
ĠBat ara
Ġ187 5
Ġco untry
Ġpir ingan
Ġnir kabel
Keter angan
g art
h ua
w oo
Ġdi lam
tu sias
ĠP ei
Ġak ustik
rop i
re ad
ĠUn tung
ĠEn er
Ġik at
ĠFranc es
Ġkutu kan
L eg
as at
ĠK uda
ur iga
ĠT uban
li pat
Ġterh ormat
ĠAp alagi
esk top
Ġjam ak
Pro yek
esan kan
Ġaku isisi
Ġpeneliti annya
app ij
Ġmenyang kal
ĠSalv ador
Ġmenek uni
f ek
Ġs tim
Ġs anto
Ġper a
ĠD elapan
ĠR un
ĠR ut
ĠR ika
isi s
Ġmel ek
Ġmemper bolehkan
men inggal
ĠPan embahan
Ġanti biotik
Pem erintahan
Ġpo int
Ġaset at
Ġpengisi an
Ġfun dam
c anya
m ol
r ong
Ġs ia
ĠS ocial
ak n
ĠJ atin
ĠH ua
ĠSM U
ĠSep tuaginta
ĠPeng elola
ĠSal omo
ĠKo ordinator
ĠAngg aran
ĠKas us
ĠPerk ebunan
etas emen
ĠPlat o
ĠErn st
ĠDub lin
S truktur
t ika
t oko
Ġdi ikat
ĠP aling
ĠP iagam
ĠT ank
eb e
Ġdic etuskan
Ġkek osongan
ĠKal ender
ĠSc reen
Ġkeg elapan
Ġmemf okuskan
Ġmom entum
K am
k k
p est
Ġber iman
ĠP arti
op edia
Ġdip opulerkan
end en
Ġpel epasan
mp u
sik sa
ĠMo tion
Ġduk un
AT A
Ġsam urai
ĠRem aja
ĠHosp ital
R atu
É Ļ
Ġd own
ĠH ob
ĠH MS
Ġpeng angkutan
Ġmel intas
Ġberk er
man ce
yar d
Ġwa duk
all o
Ġkor idor
Ġmenempat kannya
ĠPet ani
Ġkandung nya
ĠAndre as
ĠBoro budur
m ik
an ai
Ġp ost
ĠS ila
ĠM emb
ĠD PD
ra w
ed ulian
Ġsek si
Ġst and
ĠSem inari
our t
In dia
Ġberw ujud
Ter l
Ġyat im
i di
Ġber an
ĠK ira
ĠM ys
ĠT han
Ġr anting
ĠL ai
ĠG erman
Ġdik erahkan
ĠDi per
Ġkes atria
ĠKa ukasus
ĠCol orado
ĠDa eng
Ġmengen yam
ĠEd gar
Ġpasi f
ĠHasan uddin
ihan na
Ġkron is
p asukan
al angan
Ġter isolasi
ĠB aku
uk ang
eg en
ĠSek jen
Ġterj atuh
ĠM ora
ro b
ĠL oc
ch n
ew akan
ĠBr y
lin k
ungg ang
ĠCo untry
Ġå Ń
eth er
Ġdidapat i
F a
un ingan
Ġpen empatan
ĠH il
Ġpol usi
Ġmengi ring
Ter jemahan
ĠCi amis
ĠHir oshima
Ġnir laba
ĠHidayat ullah
Ġpengangg uran
Ġmenafsir kan
Ġp ower
ĠS umenep
Ġke as
el ine
Ġin ang
Ġh andal
ĠN ord
uan nya
ump un
ĠAda lah
ĠNur ul
ĠGreg ory
daft arkan
vern ment
ĠGard en
C S
H F
d r
Ġp ik
ĠS B
ĠK ulit
ĠG hana
Ġked elai
ĠKer ta
Ġberm uatan
Ġzaman nya
ĠAt om
Ġnenek nya
Mela lui
g Ã©
k ov
Ġm angsa
Ġm artir
Ġs lot
Ġke unikan
ĠA de
ĠM una
ut unya
ĠG ha
ani on
ĠCh amber
Ġterl arang
tor s
Ġperk emahan
mark et
ĠSah am
ĠGad jah
c yc
Ġd enda
Ġb eda
Ġdi abetes
ĠM ika
ter inya
atu a
ĠW ard
Ġser ang
ac u
Ġdiper dagangkan
Ġbot ani
ĠKend araan
Har ry
Ġkemas yarakatan
atsch appij
S es
f itur
w id
Ġp iring
ĠS R
ĠN yai
Ġf al
ell es
ĠSam osir
ĠSim alungun
ĠOs lo
ĠStrat egi
ĠYah ya
S et
c atat
h ang
p indah
in im
ĠS ac
Ġmem buah
ĠN ai
ĠG ali
Ġpeng orbanan
ini us
yl er
embaga an
vi ew
ĠCom ics
Ġnaf su
osin tesis
ĠDipl oma
ĠAbbasi yah
b ij
g ensi
v ideo
Ġb iro
yang i
Ġber teriak
ĠK eda
Ġpen arikan
ĠW oman
gu es
awat irkan
Ġhum or
z burg
Ġdi daftarkan
ya an
Ġber damai
ro ugh
ĠL ambang
ĠL aras
ali p
Ġkep residenan
ĠPen emuan
ĠCol l
ĠDe kan
abri kan
P ad
er v
Ġt inta
ĠR onald
ĠL ukisan
ĠSe waktu
ingk ai
ĠIs ma
Ġdem o
ĠTh om
Ġdig ali
tida iyah
ĠAd ela
Ġterd uga
Ġà ¥
Ġping gang
Ġent ah
ĠQueens land
Ġdina ikkan
D ok
G r
z ania
at ta
Ġke ta
Ġber akar
it alis
Ġsa bun
Ġmenc atatkan
ĠInd eks
Ġto ilet
ĠGun dam
ĠCin ema
Ġteg uh
M ur
Ġ anggapan
Ġt rip
ĠS angat
Ġter buruk
Ġ2 20
ĠL ah
Ġberh ala
Ġpenggun anya
Ġmut asi
ĠSy ariah
ĠPe gawai
mis sion
ĠPic ture
ĠPop ulasi
ĠAvi ation
Sing el
Ġintegr al
B us
L ebih
h utan
on ta
es tasi
ĠM anga
ĠJ ump
Ġkep end
Ġdip andu
ĠPro bolinggo
Ġdig oreng
ĠYun us
tic us
197 5
opros opa
ĠNop ember
c ing
y en
Ġ anggap
un ian
Ġmen ip
ti er
ĠG uj
Ġap el
Ġalam iah
Ġpemilik nya
ĠMarx is
ĠCour t
Ġbad annya
ĠUzbek istan
R i
an isme
un at
or as
ĠP andangan
Ġmem inum
ĠL ow
per g
han an
ĠBar bara
Ġpeny elam
ĠPr insip
Ġkons truk
okoh ama
ĠSin ai
Ġbak ti
à¤ ¾
b alik
da e
am inasi
ĠM ori
id us
Ġpro s
Ġak tual
Ġsen tuhan
ĠV ill
omp son
Ġkec ok
Ġdim ahkotai
Ã¶ n
Ġekonom is
ĠCru z
ĠMits ubishi
Ġhidrok sida
P or
g itar
Ġter luas
ĠL ac
id ato
Ġc ilik
od us
ug askan
aka inya
Ġpol i
Ġ10 2
ho i
Ber ry
Ġsir kulasi
reh ensif
W F
u en
ĠP ola
ini tif
uc on
Ġ10 3
ĠPol da
Ġberm asa
ungg ul
ame o
ĠBantu an
ĠMegat ron
ĠEdin burgh
Ġk atakan
ĠM om
ba jikan
ĠB isa
Ġh im
Ġpem ukim
ip h
Ġpeng angkut
ĠY az
ĠHal mahera
Ġkeluar nya
ĠAir craft
ĠJa e
ĠDom ini
ĠSimp ang
Ġsop ir
Ġkub ik
ĠAlli ance
K antor
Ġj amaah
min ster
ĠKan selir
ĠKo ch
ĠLuc as
Ġflu ida
ĠAntar ktika
Ġline ar
Ġfer mentasi
C P
G ol
k upu
Ã ī
ĠA uto
ĠB enny
Ġmem adukan
ĠD um
Ġr ak
ant unya
uli ahan
Ġpemain nya
ona ut
ono tus
Ġjurnal istik
Ġsc ope
Ġter ampil
ro ma
Ġmeng er
Ġib unda
ĠVal ent
ĠPam eran
ĠWon os
ĠExp lor
i tif
n ell
p osisi
Ġs yn
Ġba gai
ĠF ore
Ġpeng erjaan
ag ukan
umbang kan
Ġz o
ĠPeng uasa
oph orus
Ġkeper gian
ĠOn line
ĠTs ar
Ġul tra
hard t
Ġantrop ologi
ĠGat ot
ĠMemori al
em er
am ili
ĠD ora
ra j
ĠU d
Ġker agaman
Ġpemb iayaan
ĠMen jelang
Ġ10 8
Ġdig ulingkan
ĠSur iname
ĠRa ff
kar akter
war ingin
ĠKol ese
ĠPri ze
ĠManda iling
Myc etoph
ĠAks ara
Ġmenum buhkan
Ġmenyir atkan
ĠBourg ogne
A ks
at ah
ĠM ama
ap er
ĠB elakangan
ek ukan
Ġpert ikaian
ĠZ an
Ġkeb esaran
Ġz a
Ġmod ul
ĠLe eds
ĠMus ta
Ġmengur usi
umb ung
Ġberla buh
Ġsini lah
ĠGi gi
ĠGal il
Ġinform al
ĠTurn er
E mp
p ong
er en
em ahkan
ĠP ink
ĠC F
Ġn uansa
ĠCh em
ĠX IV
Ġwa jar
ĠPeng aruh
ĠOn t
Ġder as
ĠÅ ł
Ġra wan
ĠBaek je
S up
j udul
r ell
ĠA dik
Ġpen asehat
Ġf is
ĠG et
ĠG ui
eg aran
Ġperm en
ĠGr ant
Ġkeber atan
ĠMycetoph ila
ĠCal vin
Mycetoph ila
S ec
p end
er aian
Ġp ig
Ġk operasi
ĠS ent
ĠP SIS
Ġper g
Ġh elium
ong s
Ġkel inci
anc is
Ġsi lam
Ġz i
ustr y
ce an
Ġmenya lahkan
197 0
Ġeng ine
Ġpap aran
q ih
ul uk
Ġ10 9
anc ouver
Ġdic antumkan
Ġpah it
aktif kan
ĠNah d
Ġpembangun annya
C R
Ġber anggapan
Ġter bangun
ĠC is
ĠW etan
angk is
tap ang
Ġbu tuh
unt ingan
ĠEd die
ĠAh med
che on
Ġkedudukan nya
Ġk anton
ĠS W
ĠS erta
is akan
Ġber lapis
ĠL I
ĠL ea
Ġg emar
Ġant ologi
Ġdit anya
aw e
oc ar
eta an
II S
ĠDir ector
ĠPat ih
Ġperc eraian
ĠSar ana
ĠSuk arno
Ġglobal isasi
ĠGay o
Ġmengec am
Ġs alam
ti ban
ĠT ahap
asi us
Ġw arn
ĠE yang
Ġan tusias
Ġfil ter
Ġpel engkap
Ġkomun isme
Al lah
Ar mada
ropol is
ĠChe v
ĠGab ungan
ĠSay yid
ĠOli ver
ĠTaw arikh
front asi
B ig
Ã ¯
ĠT ulisan
asi f
ri es
ip es
ĠO g
ĠPer umahan
Ġmel upakan
Ġ18 40
ina e
ebu san
jah tera
Ġproduk tivitas
unda an
AS I
Ġnovel is
Ġdibu didayakan
Ġbal ok
Ġnom inal
D ani
Ġt inju
Ġter la
Ġter ti
ĠB R
it su
Ġj asanya
Ġpen didik
ĠMar yland
Ġpemb eri
angs anya
ukup i
ĠKer inci
ĠOr ch
Ġpembuatan nya
Ġpraktik nya
ĠKir k
gagal kan
Ġkeseti mbangan
Kor ea
Ġmand at
ĠLenn on
G ar
M E
v ana
Ġ ÙĪ
ĠT enn
im eter
Ġmeng antar
Ġmeng esankan
emu la
Ġmeny embah
Ġan tagonis
ĠPro to
Ġkom edian
Ġkel em
ĠAs am
ĠKor intus
ĠMon tre
Ġet nik
Ġdipl omasi
etac ritic
ĠLl oyd
B ad
M P
us eb
ta gram
ja i
tif ic
Ġpeny usun
Ġmend esain
de x
Per istiwa
Ġdid atangkan
ĠLu is
ĠFran Ã§ois
ĠTra de
Ġparam eter
L I
S emen
c ter
al it
ĠP iet
Ġter pan
Ġkar b
Ġmenga wal
und an
Ġ10 4
ĠCl inton
ĠMc K
ĠDar ul
ĠSil va
Ġmemus atkan
Ġabs trak
M aka
N ov
o z
Ġr atio
ĠY okohama
ĠPer lu
hir a
ĠAl b
me di
ow ski
Ġtu gu
akar ya
Ġken egaraan
Ġpos ter
Ġtep ian
ĠSimp sons
ikkh u
en us
Ġb uang
ak al
ĠB aj
ĠC ana
ĠC ot
Ġg elas
Ġc r
ĠPeng guna
Ġst roke
ff in
ĠSu gi
irm ingham
ĠBir d
ĠEduc ation
Ġbermasa lah
A bu
B ra
in ata
is ap
ĠP ing
ĠP eti
ĠC ic
ĠN gu
ĠSe ine
Ġpemu sik
Ġ187 7
P on
Ġ yu
Ġk ib
Ġter min
ĠB ont
ĠD apat
Ġ" ).
te ori
ro ck
ĠJ ob
ĠG urun
Ġpro klamasi
Ġperk elahian
Ġpet ahana
Ġmenolak nya
Ġmengin vasi
ĠLib rary
Ġdiser takan
T E
Ġber ga
ĠK NI
ĠD enis
ĠF le
Ġket ahanan
ĠAg ustinus
Ġkor por
Ġmobil nya
ass in
ĠGu ild
Ġta fsir
ĠÃ Ĩ
ĠIst vÃ¡n
epend ent
Ġfa una
Mod el
ĠAkun tansi
Ġdisimp ulkan
b idang
Ġ endapan
Ġp lot
Ġb ip
Ġdi da
es z
ĠA w
ĠD uke
Ġpen da
ĠR et
Ġkom et
Ġat ribut
ĠSt atistik
wak il
Ġ186 9
ĠCamp ania
Ġtangg uh
O ber
bu hi
ĠD z
ĠL S
pat ung
ĠSe i
Ġpeny utradara
Ġmil enium
ĠPem akaman
Ġpan ti
ĠPemb inaan
Ġhar ganya
ĠBuk ti
mati us
ĠChrist mas
perim en
ĠCode x
s angat
ga dis
ĠB om
Ġsa jak
ad atan
Ġdik emas
Ġtel eg
Ġmah ir
Ġmak ro
ĠâĢĻ ,
ĠHer o
Ġet n
ĠHai ti
ĠHabib ie
Ġensi kl
Ġm antel
on it
ĠA ustin
Ġh ost
esa ya
ĠSe ung
Ġdip ukul
ĠBar n
Ġmemba lap
Ġpenga lamannya
Ġep ik
tim us
ero an
Band ara
Ġbatal yon
ĠKanj eng
T N
U P
s uk
Ġ apos
ĠS kand
il ena
ĠB I
ĠT ana
ĠR asa
ĠSe ven
Ġdit untut
Ġkom patib
Ġ10 6
ĠSM S
Mic ro
Ġsimp an
ĠTuan ku
Ġhay ati
ĠMangg arai
Ġgluk osa
Ġdiad ili
B re
k si
q ua
da du
Ġdi utus
as in
Ġmer agukan
ati b
Ġdik ombinasikan
Ġas pirasi
ola li
Ġar teri
ĠMa atschappij
ĠSp ring
ĠMari ah
Kaw asan
emai os
r ec
in en
Ġb angk
ĠH es
ida l
omp et
Ġberk enalan
Ġib lis
Ã± a
cast le
ĠGuna wan
ĠPersek utuan
Ġà¥ į
W est
p ri
Ġ ombak
es ch
ĠP SM
ĠT arian
ĠR ak
ĠF uku
Ġkem iri
Ġkel opak
ĠBer b
ron im
yl us
197 7
Ġgal eri
G R
d anya
h uni
Ġb ea
Ġber cabang
ĠT oh
Ġj urus
ĠJ usuf
Ġg lik
ra ine
Ġgen om
Ġpend ingin
Ġdil ukis
Ġat raksi
ĠKon rad
13 0
Ġ186 3
Ġcuc unya
Ġanat omi
H i
P i
g edung
Ġm y
Ġmen dahului
ĠS pesi
ĠK eluar
ĠR ihanna
Ġa ula
Ġmeny isakan
ĠX iang
Ġdid engar
har jo
utif ul
Ġkarbon at
Ġpemro sesan
ĠKast ilia
H ang
m or
di per
ĠK ut
ĠT N
ĠL amp
id s
ĠF ei
ĠF au
ĠW onder
ĠW aduk
qu i
ĠLi v
tab le
Ġe uro
vid u
ĠHer bert
Ġsaham nya
Ġdiw arnai
ĠEdi tion
Ġkonv oi
ĠKarangan yar
B ri
Ġp ale
Ġdi gerakkan
ĠS TA
el f
Ġj ernih
ni fer
Ġbers uara
ĠBa yu
ĠNasional is
Ġkeber untungan
Ġtab rakan
alisasi kan
Ġá ¼
ĠKot amadya
boh idrat
ĠAtlan ta
ĠFish er
ĠElis abeth
W ar
on esia
Ġj ingga
Ġpen omoran
ĠR eview
Ġant ark
ĠDi pati
ĠMar ina
Ġ7 50
Ġmenya la
omba y
ĠPeny elenggara
ĠTs un
Ġdiw ujudkan
lop edia
Ġpenandatangan an
2 50
H ab
r ina
v ie
z ir
Ã °
al ani
ĠS wan
ĠI D
ĠD atar
ĠY esuit
ĠSa yang
bat su
istr asi
Ġwa wasan
ron e
Ġpec inta
Ġab solut
Ġmenak lukan
ĠNip pon
h wa
Ð ´
Ġdi ferensi
ĠS ok
ro kan
Ġmer esmikan
Ġl elah
Ġr un
ĠL omba
ina via
wal l
art ika
ĠTh era
ĠUr ban
ĠNat han
ĠVirg in
Ġpetern ak
Wak tu
ĠKamer un
M ul
u ap
Ġ arab
Ġp iagam
Ġ" âĢľ
Ġpen unjang
ĠR ib
ĠG las
Ġmel emah
oda di
Ġi Phone
Ġperm usuhan
lus ter
ĠTo ul
pem erintah
h or
Ġ ubi
Ġp ian
Ġdi andalkan
ut su
ro y
ĠC ob
ĠJ av
ip tanya
ĠV il
gal an
ka ji
ĠPen jaga
Ġjam bu
ĠPend eta
Ġmaj emuk
Ġner aka
J ac
h awatirkan
Ð ¼
ĠM ili
Ġh ad
ĠN S
ĠN ay
Ġf usi
Ġa ur
ot r
Ġmeny alurkan
Ġmemb eda
ĠV ancouver
ka jian
Ġ10 7
Ġjar ing
hanc ur
Ar t
ĠKur t
ĠItu lah
ĠBerkel ey
B ila
D PR
b odi
al engka
Ġber ambut
ĠP engan
Ġmem atuhi
ĠD ang
ĠT elah
Ġseb aran
wan ita
ĠAg ar
ĠCol lins
ĠKer r
In ter
Ġberg el
cha ete
ĠYud ea
Ġeksi s
Ġport al
m esin
w ing
tu ri
il um
il ustr
ol la
Ġmem esan
ĠD esign
Ġmer ambah
ri bus
ĠF aktor
Ġsek elas
ĠMar sekal
ĠPro klamasi
ĠPr amb
Ġharus lah
Ġ12 00
Ġsis wi
omba kan
ĠKeh akiman
elli g
ĠCla thria
Wak il
musi m
usti ce
Ġkey board
A di
J uli
Q ue
ar uddin
Ġb alon
Ġke bu
ĠA ki
ĠT arakan
ĠL angkah
Ġmemb esarkan
man usia
engg ang
Ġmeninggal nya
Ġberl indung
ĠAc antho
Ġsin k
ĠMaj or
ĠMet al
ĠPut era
ĠDar ma
ĠBl ora
D er
M ask
w is
as uki
ĠS ina
ĠS utra
ĠS now
ĠP uluh
Ġter damp
ĠB irmingham
Ġmeng e
Ġan organik
Ġdiper iksa
est on
Ġmend anai
ĠKar yanya
Ġsub t
ĠMak kah
ĠPela tihan
ĠVo ice
Ġpembah asan
etul nya
M obil
b ow
j elasan
ĠS ti
ĠP eda
ĠB um
ali e
Ġdip ulihkan
Ġ13 5
Ġib n
ĠKong regasi
ĠEd u
Ġsy ukur
Ġpersi dangan
Ġkej utan
-- --
industri an
ĠBuda pest
Ġmolek uler
b ana
si mbol
ĠS yi
Ġber awak
ik saan
ĠK ac
ĠD ed
ĠO da
Ġi bukota
Ġres er
Ġsk etsa
ĠSel euk
Ġmelemp ar
ĠDecep ticons
c ell
g ow
l angit
Ġs ambungan
ĠG adis
eri si
ud ar
int ing
Ġlu tut
ĠAng in
ji zat
umat ra
Ġbatu bara
ĠHa z
Ġpin yin
Ø§ ÙĨ
ĠBang un
ĠPari aman
ĠKop tik
ĠArn old
Ġdol lar
ĠLith uania
ĠOrgani zation
F akultas
K lub
T or
Ï Į
Ġd uri
Ġse akan
ĠP eck
gi us
Ġmer ger
Ġor ig
eks ualitas
ĠPen ingkatan
Ġmemas arkan
Ġbin er
Ġdita fsir
197 3
Ġrum or
Ġpeman dian
ĠRena isans
ĠBib le
ĠBrook lyn
Ġcengk ih
b isan
g eme
t am
Ġmen ular
ĠK ho
ĠL anda
ĠE u
tap ura
Ġbi b
Ġkon sili
ib adah
emp o
ku il
Ġpemb eda
Ġpengh ujung
ĠSi erra
ĠTan zania
Ġken ya
Ġkonf ederasi
Ġterj angkau
ĠOb last
Ġspek ulasi
jub kan
ĠPrab owo
h adap
ĠM ey
ĠB endungan
Ġper ed
Ġmemb elah
rop h
Ġberk uda
re kan
Ġsu aka
Ġv ampir
utu re
Ġli tium
Ġterbaik nya
Ġ187 4
Pert ama
back ground
ĠLas em
Pela tih
b s
Î ´
un tain
Ġber tumbuh
Ġh ero
ĠDir jen
Ġdias osiasikan
ĠWat son
enya p
Ġboc ah
Charl es
J embatan
al inan
ĠA PB
ut sal
et kan
ĠC opa
eb i
ĠR ug
Ġn um
ep it
amp aran
ĠAl un
oda y
ev akuasi
ĠPen dirian
est inya
Ġkap el
ci on
Ġperan ti
oro kan
Ġbersem angat
ĠHide yoshi
ilustr asikan
f os
g uay
k la
ĠK operasi
ĠT O
eh a
ida dari
Ġpem ecahan
ad ys
ni c
Ġdir es
hi ch
ron ic
Ġdipro ses
Ġq uad
ĠXI X
ĠHarris on
grap hy
Ġtril ogi
k ia
el eng
ĠB ran
ump uhkan
Ġpet inggi
ĠMur ray
ĠKonf lik
kai do
O h
ĠP N
ĠP uskesmas
ĠD ou
up kan
asi han
ĠL ingga
op oda
Ġst rip
ĠGr aham
anti sipasi
Ġsup lai
ĠIndustri es
ĠUU D
ĠMol dova
ĠSchl tr
Ġinov atif
L ihat
m ak
p lat
Ġm im
Ġp agan
Ġmen antu
ĠM angku
esi t
ent rik
Ġsel ebriti
Ġ7 47
Ġmend ekat
ting en
Ġkek al
Ġmul tin
So uth
ĠMeri am
ĠOnt ario
P ak
S ta
Ġp and
Ġper on
ĠT ama
ĠN yonya
Ġla k
ĠIn tan
ĠE sa
Ġsen dirinya
duk kan
Ġal ergi
ef t
ira wan
our s
ĠGre y
ĠPla ce
hen tian
ĠGreg orian
htt ps
Berb eda
T rich
s ungguh
Ġpen dak
ĠR ag
ĠE ti
han akan
Ġberk enaan
ug ht
Ġå ı
emat is
Ġterd epan
ĠComm itte
L atin
S inga
t indakan
Ġs entra
al m
ĠT os
ep p
Ġw at
Ġw ol
Ġdip ecah
ac unan
art ikel
Ġmenj emput
ĠMa gic
ĠQ ian
bi yah
erdeka annya
Ġop tim
Ġreg u
Ġà ¦
ĠKid s
Ġtuk ar
Ð¾Ð ²
ĠDist rict
ĠChild ren
A ran
h on
h ui
Ġ ec
Ġt uber
al and
ĠK ucing
it arian
Ġj o
ĠL inda
ok et
ant asan
ĠPer ayaan
ĠAr ktik
Ġpel estarian
ĠPert amina
Per ubahan
sp ek
ĠSw e
ĠHer odes
ĠÃ ĸ
ĠHol mes
Ġreg num
Kep ulauan
ĠSah ara
chaete tes
F e
K ont
X X
m enc
Ġber tukar
ĠB ian
ĠT ela
ĠE b
ĠV isual
ĠIs hak
Ġme wajibkan
ell ing
Ġpenga jian
Ġå į
ĠPor to
Ġmempert emukan
ese orang
Ġcur am
ĠPy th
Ġmempro tes
Ġpuc uk
Ġmeres pon
yahan da
istimewa an
v ari
z aman
Ġp abrikan
in esia
Ġdi ikut
am erah
ĠK opi
Ġper ancangan
ĠC amer
ĠL ahan
ĠAn to
ob ilisasi
ĠQ ura
ĠLi on
ĠAir langga
ĠNo or
Ġberg eser
ĠKam al
com e
Ġsimbol is
Ak ibat
Ġkron ik
H el
l em
n ar
p ia
Ġk endala
ter dam
ent alis
amb an
Ġsen ator
ig e
Ġpri vat
ĠPal m
car ea
ĠDah ulu
Ġmembuah kan
ĠAcantho chaetetes
3 20
: ,
T okoh
Ġd ongeng
Ġb l
da un
Ġmen ugaskan
ĠS abat
ĠA badi
ĠB atur
ĠD ul
ĠT eng
ĠT empur
et nis
ĠG adang
ĠPer ancis
ĠKe ju
aris ti
Ġberat nya
Ġdif ungsikan
ĠKash mir
F asilitas
T ari
Ġd og
ĠP aja
ĠA uth
ĠT epi
ĠC ok
ĠY ani
ab isan
19 65
ĠKol onial
onj ong
ĠCal carea
Ġmengiring i
D ah
D or
P ang
h yang
ar in
ol ph
el ma
gi z
Ġsa gu
ĠW ib
Ġmeny inggung
Ġdapat kan
Ġdib alik
Ġsel era
art ney
tern us
Ġperm ata
ĠRom o
ĠSem asa
ĠWal ker
Ġspir al
Met ode
Ist ana
Ġwell si
Ġditafsir kan
o unt
v okasi
Ġ yo
ĠS J
ĠI si
Ġc ir
Ġka d
ĠAn alisis
ĠV ia
aja iban
Ġmengh apuskan
ĠPro gr
ĠTe uku
our ce
Ġrek onstruksi
ass o
ĠSeri bu
Ġtaw on
Ġdist ributor
Ġmengu atkan
ĠSA W
Ġabor si
R E
s ak
ik mat
ĠA yam
um bus
ek ah
Ġl ongi
ela war
ot en
Ġbi bit
Ġperk uliahan
wart s
ĠJama ika
ĠKej uruan
ĠS V
ĠH yang
ch th
Ġdis ebarkan
ĠPas ca
ĠLu x
Ġalk ali
ĠSya fi
ĠSes udah
ĠChurch ill
ĠSye ikh
Ġekst ensif
M ag
b ott
p resi
Ġdi edarkan
ĠB it
Ġ( âĢ
ro to
Ġpen unjukan
ĠL urah
ĠF ujian
ĠU lar
Ġpeng el
ob ak
ĠAr tis
oni us
ĠBe atri
ĠKeb angkitan
Ġgi at
Ġkul tus
ĠUS S
ĠHy un
Ġdire bus
ebelah an
Ġhib rida
B an
T anjung
y inya
ĠB elas
Ġmem at
ĠG oku
ĠU ang
Ġpert unjukkan
ot ika
ĠMar cus
esk o
Ġmenja uh
gen ap
we et
isk opal
Ġkuan titas
ĠProduc tion
kos aan
Ġdiberit ahu
er eta
ĠD uk
ĠG la
ĠG in
ana o
angk urat
Ġmemb esar
uj ang
ea ux
Ġberh ati
Ġ16 00
ĠTh ompson
ĠCo ast
ĠTr un
Ch rist
Ġinter aktif
197 4
ĠTaj ik
g ate
Ġ eti
ĠP Ã©
ĠP ON
ĠB ing
ĠT est
ĠR awa
Ġpeng hi
ec om
Ġkom ika
Ġkomp rehensif
ill on
Ġperh elatan
ĠCon vention
ĠServ ices
Ġï ¼
Ġfir ma
ĠEngine ering
Ġpengoperasi an
1 20
S ha
Ð ¹
Ġt ad
ĠK iri
te en
Ġdiper lihatkan
Ġmagn esium
Ġam bang
Ġinf lasi
ĠCap ital
Ġungg as
ĠPersi apan
ĠKonf usi
ĠPL N
×ķ ×
Ġdekor asi
ribus inya
o yan
Ġk ura
Ġdi agnosis
ĠS emb
ĠS tadium
eng erti
ĠT oko
Ġpem akan
ĠW ÅĤ
ip al
ran us
eti c
Ġberkurang nya
Ġakun tansi
ĠNav ar
w atan
Ġdi gi
ah il
ĠB aw
uk us
Ġ" ...
Ġr aih
Ġn ur
ĠPer tumbuhan
ag le
Ġsamp ingan
Ġbert olak
Ġbaru lah
inda kannya
Ġro tan
ĠIl m
ĠMich el
ĠAri f
ĠRobin son
Ġk ancah
am al
ĠM era
Ġj aksa
do sa
Ġf lora
ĠH iz
ĠO man
Ġbers ebelahan
Ġkem erdekaannya
Ġmemp rediksi
isti lah
ĠSy n
ĠKel ima
au x
ĠSeni or
anth rax
Ġkri tikan
mod el
ĠPtol emaios
ĠSkand inavia
adys ÅĤaw
ol y
ĠN ing
ĠAr ema
oh ar
aksi mal
Ġditulis nya
Ġri tus
ampak kan
ĠMon ako
ĠYak obus
Ġfos fat
Ġsop an
ĠCommitte e
B lue
U k
s m
Ġs on
ĠS z
ĠS la
ol on
ol it
ĠT A
ĠR abi
Ġr itel
ĠL irik
tr ess
li o
lak e
Ġkomp likasi
Ġpel arian
lin ik
Ġpan ik
ĠBo jong
Ġmengak tifkan
olos kan
ĠChrist ina
ĠJen nifer
Ã¡s z
Ġfos for
Sar ana
Il mu
u chi
Ġmen enangkan
ga u
Ġber untung
ĠP PP
Ġin k
ĠM edal
Ġr en
Ġpem adam
Ġdib ilang
Ġdim engerti
ĠKe y
Ġpemb om
Ġkel uhan
Ġman uver
Ġtra iler
ĠPra jurit
Ġsup ern
ĠWest minster
Ġberdiam eter
T ri
u et
v re
v ora
al uan
ĠP andu
Ġin put
gi la
do u
ĠH BO
ĠG ent
Ġker a
Ġmenc ukupi
ĠPen yanyi
mi um
Ġkons pirasi
ira usaha
ema il
ĠKes e
ĠRa fa
Ġpres entasi
Ġso ftware
Ma x
ĠHog warts
Î ¬
Ġp ion
ah ta
ĠT engku
ĠH uruf
ĠIn ves
ĠSe jahtera
ĠAr ia
Ġterb enam
Ġkek uningan
AN A
ĠNa zar
ĠBe ast
dir kan
Ġmon opoli
Pen elitian
tem urun
ĠIsa ac
ĠConn ec
I D
d ate
r ar
Ġp odium
Ġper us
ĠI ly
Ġl enyap
Ġmeng ulangi
Ġpen ampakan
ter o
lu g
ĠZ ero
Ġterjadi lah
ĠLa v
ĠMan s
Ġdita wan
Pen ga
ĠMac Arthur
ĠMaka u
pem ain
ĠBoy olali
vok al
F S
h idup
w il
Ġs ila
on aktifkan
ĠP anj
lam bangan
ĠJ aka
Ġla inya
ĠH olo
anj akan
tan pa
he id
Ġditer bangkan
Ġkel angsungan
ĠSal man
Ġcer amah
197 6
keb ijakan
Ġgar nisun
b h
Ġs por
Ġb uka
ĠS isa
us han
ĠM edali
ĠT wo
ĠL Ã©
ĠL intang
Ġg etah
Ġc uti
Ġc har
Ġdip anggang
uj angga
Ġterl arut
ĠSo edi
qu er
Ġrela wan
Ġbila teral
Ġ186 6
ĠCha o
ĠDI Y
ĠMontre al
m ia
n nya
en ko
ĠP arah
Ġper gel
im ba
amp unan
ĠTh is
ĠMat s
Ġsam aran
ĠDal las
ĠHus sein
áº ¡
ĠRek aman
aci onal
ĠMug hal
L alu
uk lir
Ġh on
Ġh and
ĠJ udi
ĠL GBT
ĠE mer
ĠPer ingatan
ĠCh oi
Ġdiper hitungkan
uc a
Ġtert unda
ast ik
ĠSo o
ĠSo em
Ġins tan
Ġì Ŀ
Ag ama
ĠIndi ana
Ġdipan askan
Ġkenya manan
M ana
R ock
z zi
ĠB N
ĠD ini
ul in
se jak
Ġka itan
ĠPem an
jak saan
Ġperp isahan
ĠKol eksi
ĠGran ada
ogni tif
ĠWono giri
perg illus
K ali
T H
Ġ" ),
se ud
ĠE X
Ġpol os
Ġmengi mp
Ġpenc alon
ĠMaj alengka
Ġgi rl
ĠSum ba
ĠSouth ern
ĠWa yang
part ement
Ġdiaku isisi
ĠNahd latul
S ten
o uri
Ġk adal
ela si
ĠH unt
ent ari
ĠE th
Ġdik hususkan
ĠCh and
Ġkes edihan
bab we
Ġpeny esuaian
ĠAp akah
ĠAng gun
ĠSem i
ĠKan sas
ĠMad ya
ĠEur asia
ĠRud y
ĠLeg end
ĠHun ter
Ġlonc eng
L ay
en ari
Ġb ed
Ġin dikasi
ĠI dul
ĠD itu
ĠL op
per ubahan
ĠH M
Ġc ont
Ġas im
ĠDi di
ĠTer kadang
ĠKar tu
ĠNew castle
Ġ186 2
ĠAI DS
Ġzi arah
G lenea
O p
t own
ul um
ĠC ari
ela jahan
Ġf eri
ant y
Ġc al
ĠW atu
arta inya
ĠMar co
ft aran
ĠBat ik
Ġberc ak
Ġpenye butan
Ġjurnal isme
ĠVik ing
y te
ĠS ophia
Ġin tr
ĠI ta
ĠG lenea
Ġpeng unjuk
Ġmusi c
Ġdir ujuk
ĠPas ha
Ġrah im
Ã¤ n
ĠAdv ent
Ġza itun
ĠB ish
ĠB ale
ĠH aris
Ġdis uruh
Ġsp ec
Ġpop ulasinya
Ġdij angkau
ĠSel angor
use in
ĠVol ume
Ġdieks p
ĠPala ce
ĠHok kaido
ĠMH z
Ġpengin apan
ĠLeop old
L ou
Ġs ingk
ĠD res
ĠT ho
Ġmeng gun
ĠC ahaya
ok ar
ĠE C
ed erhana
Ġterb i
Ġres or
lo ud
pen y
ĠEd dy
Ġsebab nya
Ġsim ulasi
Ġten un
Ġkele lahan
ĠHij ri
ĠTransform ers
: )
K ong
V er
V al
b ama
q ah
s eri
it ol
Ġh ome
ul osa
ĠL ut
Ġbi as
og ok
su ara
Ġgol f
ĠKek h
alo gi
ĠDri ve
Ġbengk el
Ġkeseb elas
Ġapos t
o ya
gu gat
Ġkons esi
eman s
odi m
Ġpot ong
ĠTak hta
Ġpemas ok
ĠWonos obo
T um
b ass
j asama
la us
Ġb ri
ĠP omp
ĠK AI
ir k
ĠC ac
ĠC urah
eb ra
ec uti
ea ch
Ġsel isih
Ġhal te
ĠMer api
Ġmenj arah
ĠLa gi
ĠBa udo
oph ron
sk ar
ona x
ĠIb tidaiyah
luk isan
ĠEur ope
ĠKamp ar
ĠCur ug
Ab dul
Ġnot asi
ĠRiz al
Ġderma ga
N askah
w alan
z ai
Ġ iri
lah gunaan
ĠR t
ĠR ace
isi tas
mas ter
Ġberl ebih
men urut
ĠSen apan
ĠFor est
Ġ185 7
ĠØ ¹
ĠYa itu
ĠCra ig
Ġberan eka
Ġmultin asional
S uk
T K
Ġ aransemen
Ġdi urutkan
eng gan
ĠR ata
ac aran
Ġmenga d
tur n
Ġditu mp
embang un
Ġkek ej
An da
Ġlawan nya
Ġtun ai
ĠMalaya lam
Ġsukarela wan
Ġdikon versi
Ġhay atnya
H ist
K ak
S he
w ulan
or u
ĠB elum
it en
ĠI lahi
ĠD PP
Ġmeng onsumsi
ĠR ick
ĠPer ingkat
amb e
Ġmemb olehkan
ongk ong
ĠX box
ĠGa on
ĠKons truksi
ĠOp timus
ym n
Ġdiaw asi
Ge orge
ĠBundes liga
ĠPaja jaran
V an
e is
er ty
Ġm esi
Ġdi et
im on
ĠC S
ĠC ag
ĠR yu
ĠN om
ki en
arat on
ĠGu o
pert ensi
Kon disi
ĠMedi cal
ĠPrak tik
Ġkelih atan
L ima
P asar
ĠD oa
Ġr api
Ġpem uka
ed on
ĠAr tikel
Ġmusi bah
Ġ18 15
ig g
ĠPara guay
Ġkarakter nya
iz u
ĠAri ef
ĠManch uria
ĠTab anan
Ġcek ungan
Ġroman sa
Ġditrans fer
ĠVolks wagen
Ġbangk rut
D ol
H ow
M ei
Ġ ye
la ya
as ah
tu la
or ity
ĠM onster
Ġkar bohidrat
od en
Ġger hana
entri an
sch a
ĠEv ans
Ġmag ang
ĠLar ry
ĠBasil ika
Ġpropor si
ĠDona u
Ġdi siksa
Ġdan sa
ak tivitas
ja uan
ant en
ali gn
Ġja go
Ġkh otbah
Ġmengg arap
Ġterbesar nya
Ġwakil nya
ĠManda la
ĠKonser vatif
D el
D ata
m ag
n egeri
Ġp eb
Ġber ibadah
el emen
ĠM ot
Ġmem amerkan
ĠT amp
Ġberk es
ĠPen diri
Ġ11 5
ĠEl ang
aha yu
Ġberc ocok
As pergillus
ett el
ĠAy y
Ġinfr amerah
O li
P il
Ġber ter
ĠK il
ĠL askar
Ġsel epas
Ġberp restasi
Ġgelar nya
sin ki
Im am
Ġmikro organisme
Ġdieks por
ĠDah lan
ĠRot terdam
ĠNev ada
Ġmembeda kannya
G ir
M edia
t isan
Ġp iston
ĠA us
um ulasi
ĠR ani
Ġc as
ila k
ni ca
udara an
Ġdih id
ĠSo fia
Ġdiba cakan
Ġkont inu
Ġkimia wan
ĠPur ba
Ġsubs trat
Ġtimbul nya
Ġkepeng urusan
useb ius
Aran eus
k eluarga
w yn
ĠB awah
ĠC las
ĠR ing
Ġg anj
ĠH uta
ĠG ond
Ġka get
Ġser dadu
ĠKa jian
19 45
Ġdiper senjatai
Ġme teor
Ġmener imanya
ine as
ĠAustr onesia
Ġprim itif
Ġdok umentasi
ĠAran eus
vi er
ally sp
B on
C ha
K en
r man
w angsa
y st
Ġ eduk
Ġse tim
ĠA gain
ĠC agar
Ġpen ata
Ġn usantara
ĠN ina
ĠAm bar
Ġpr am
ĠZ u
antu l
Ġmeninggal kannya
ĠBat tle
Ġken apa
ĠRad ar
itz er
AF TA
Ġpay udara
ĠBud ha
Aks ara
b ok
k ad
r inya
Ġ ã
ĠS ikh
ĠG alia
itu ler
aw in
ĠPen asihat
Ġberp acaran
AR A
igh ter
Ġsus pensi
Ġpo und
ĠPurw akarta
ĠMik hail
c ep
Ġber sep
ĠA yat
ĠK ens
ti al
ja zah
Ġte aser
ĠF ak
tor i
Ġmemp roklam
Ġterk onsentrasi
ĠKor awa
ĠKed utaan
Ġsy ariah
Ġlong sor
otten ham
Ġdiker ingkan
ĠCatal unya
D ar
w ei
er et
er os
Ġt enda
Ġb angkai
Ġmeng enalkan
Ġte ologis
ĠPer awan
bad atan
ĠAk tivitas
ĠGe off
Pem ain
Ġdian ugerahkan
Ġbertanggung jawab
Ġparlemen ter
ĠNob unaga
ĠElek tron
wawancara i
ĠEner gy
w ij
Ġdi dahului
Ġse genap
ĠK ings
ĠB awang
ĠC ard
ĠR RT
ĠW ati
Ġpert entangan
Ġmeny uarakan
Ġkon duktor
Ġdis ad
ĠCh al
ĠKe tapang
Ġberp ihak
eles s
ĠArab ia
ĠSte in
lok ir
Ġ186 5
iklan an
Ġterla tih
L and
M esin
Ġb ol
ĠT rey
Ġl ump
Ġn atur
Ġker amat
ani yah
ĠAl pen
Ġkes enangan
Ġmod erat
ĠPas er
Ġses at
ĠDivisi on
ĠDomin ika
ĠWÅĤ adysÅĤaw
f lu
x e
Ġk olabor
ĠS emuanya
ak as
ĠT id
im un
Ġmer okok
ĠN asi
ĠL it
Ġa v
ĠIn duk
angk ung
ib ia
ĠSek tor
Ġdibuat nya
Ġpenc urian
Ġters ingkir
ĠÎ µ
bal ingga
cl ona
ĠMaur ice
ĠImper ial
ĠBÃ© la
S ya
p enc
Ġd urian
Ġt ekad
ĠN I
ĠL uci
Ġte xt
Ġdik enang
ma chus
ic ations
ĠDem ang
ret t
arn ing
ĠCar ey
ĠEx change
Ġkontrak tor
Ġbern uansa
ĠLan e
IS O
Ġsim pat
ĠBlack Berry
ĠNav y
Ġemb rio
ĠChall enger
ĠLub is
Ġfundam ental
G S
H ip
M C
T ai
Ġber bukit
ĠA gu
ih ad
ĠE g
ĠW ord
ip to
ha usen
ĠTer jemahan
Ġen er
Ġen ter
Ġbel anda
ãĥ ¼
ĠShe ikh
cur y
Ġpeg angan
Ġrint angan
Ġsilik on
on sili
Ġl uhur
ĠL uck
ida d
os ong
Ġberb aris
Ġberb anding
ĠSa ul
est o
ĠKar na
Ġterp adat
ĠWar ren
ĠRober ts
ĠEr win
Ġsul f
ĠPenga was
Ġlan skap
khusus nya
bij ian
k or
Ġber bulu
ap el
ĠR ana
Ġr onde
Ġf en
ĠF ajar
Ġser buk
19 66
Ġpeny iksaan
Ġkom a
ump amaan
ĠUni c
Ġpenc ulikan
ren ch
Ġtump ukan
ĠNis san
Ġapost olik
L ab
ar dia
Ġm dpl
Ġs treaming
Ġk upu
ĠP idana
ĠA ust
ĠK ew
ĠN IIS
Ġla un
eri e
ĠW r
ch al
Ġdik ejar
ĠPro s
ĠDis co
Ġpad atan
Ġnaskah nya
ĠOt onomi
ĠLeb ak
Ġjen uh
Ġdihadap kan
ĠGl enn
j eksi
Î ¸
yang annya
ĠS uri
Ġr ug
ĠH arga
ĠH usein
ĠF em
Ġmel emahkan
ĠZ hi
Ġkh atulistiwa
Ġkons ensus
ĠSo f
ĠIb n
odi ce
Ġko efisien
ser takan
onf lik
Ġâ Ĩ
Ġmenak jubkan
Th omas
ĠAy ub
Ġles bian
esc ens
Ġdisen gaja
J am
r isti
Ġt rop
ĠM pu
Ġpen undaan
Ġla tin
Ġa yahanda
ĠW ork
ag ne
gal anya
ĠKor idor
Ġmodern isasi
Ġmul tip
Ġkend ati
ĠPenduduk nya
ĠSta ge
esse e
Ġdiag ram
B L
us er
ĠM ore
uj ah
ac ita
ĠDi on
Se bagaimana
ĠSo ed
ank ing
Ġis teri
ĠHer gÃ©
Ġdah ulunya
Ġkete balan
ĠYud ha
ĠSL TP
Ġsemb ari
hian ati
ĠBap tis
oordinasi kan
Ġsand era
fli x
Ġber urusan
ĠP andan
ĠK R
ĠPer sik
Ġmenc ium
gu el
ĠTer ry
eti me
lis er
Ġmener bangkan
Ġkons ultasi
ĠSo ep
tic ut
ame dia
Ġpasangan nya
Ġplat inum
rem asi
Ġberkel ana
kurang nya
ĠGom ez
Ġterbi asa
L ambang
r h
t angga
Ġse sekali
ak on
Ġter luar
Ġj i
gi r
ul uhan
ĠJ ol
ula p
ĠMar qu
Ġnegara wan
est ro
Ġmet od
Ġberlangsung nya
let ser
Ġdah syat
ĠNe xt
ĠOb jek
Musi c
Ġcur iga
L okasi
an angkan
Ġs asis
Ġp unc
ik um
ĠP O
Ġg und
ĠF K
ĠHar old
ĠGu ardian
ĠHam zah
ĠPel ita
ĠArt ist
obi ografi
Te tapi
ĠGil bert
ĠKre ta
ĠBaudo uin
F er
M ir
Ġk ognitif
Ġb angga
Ġmen ur
ĠS ob
ba la
ĠD umb
asi o
Ġmeng un
ad il
lan tai
ĠMar tapura
Ġbu yut
.. ."
ĠMah at
ĠKo alisi
Ġmengur aikan
Ġmulti media
Mus lim
ĠLum ajang
ĠNorman dia
ĠZim babwe
Ġpenip uan
k ont
l unya
Ġk eri
Ġt esis
Ġmen diskusikan
es o
ĠC ala
ĠJ enn
ĠR ou
ĠL ike
wa fat
Ġbi okimia
aw irawan
Ġkol ektor
ĠHer odo
Ġinf lu
Kar akter
Ġsaud arinya
ĠLuc y
Ã¡sz lÃ³
" /
D unia
t ata
× ľ
Ġp neum
Ġmen enggelamkan
do a
amp i
Ġkar na
ĠY es
ob jek
ĠBa v
Ġdig antung
ĠKan nada
Ġpar sial
tre cht
ĠHel sinki
ĠDay s
ĠGus tav
ĠImper ium
Ġpian is
em ort
ak el
Ġmem ihak
ĠD imana
ro ch
ĠC ON
Ġba wa
Ġsel ebr
Ġpas casarjana
ĠRep ub
Ġperh atiannya
ĠQu ebec
Mar ne
ĠSqu id
Ġsinte tis
. ).
Ã ¹
ĠP eta
ĠB eh
ĠB ent
ĠB enn
Ġa j
Ġpem us
ĠY uri
ed en
Ġri val
Ġtengah nya
ĠEl vis
ĠKol oni
arg umen
Ġkuliah nya
ĠFi ji
Ġmempers atukan
Ġmerep resentasikan
ĠSaturn us
ĠAdela ide
Ġensikl opedia
b unga
n old
Ġp artainya
Ġt ag
di tion
Ġke dai
ti ra
Ġh epat
ĠIn siden
ih i
ot on
Ġdik ontrol
ĠKa u
ĠZ ed
Ġkur ung
ĠKer jasama
ĠDe but
ĠAsi ria
Ġam onia
ĠMi ya
ĠTor ino
ĠSil esia
ĠGag asan
Ġwarn anya
ĠIlm iah
onsili asi
C op
K ampung
j asa
Ñ ĭ
Ġm artabat
si ki
us sia
ĠD S
ĠJ oy
ĠR B
ĠG AM
ĠW orks
op ro
isi ana
ĠPer nah
Ġpro yeksi
Ġkep edulian
tor ia
Ġres torasi
ĠPem eran
ĠKep ler
bul lah
ĠGr im
Ġep is
ĠRa f
ĠUs man
elap ak
Ġpersa udaraan
ĠMuk h
Ġhas rat
enth es
ĠMoch tar
Ġwah yu
I kan
K risten
N ovel
r nya
as pek
Ġse usai
or kan
is nya
lam bang
ĠT aka
Ġla yang
Ġba waan
ĠG ula
ok ker
gal ang
emp ol
Ġv ital
ĠBr yan
ĠPem atang
Ġe uk
ĠSen egal
ĠEl li
ĠMin h
Ġkeber sihan
ĠEd mund
Ġindi e
ĠSant oso
P rasasti
u ary
v ens
w et
à ®
Ġp etak
Ġp etisi
us in
ĠD od
ĠT ottenham
ĠR andy
ch ang
Ġka us
ĠMar se
bum bu
istr y
ĠGen oa
ĠLo tus
ĠWay ne
Ġmac an
Ġberdo sa
Austr alia
ĠRal ph
ĠAlum ni
H ali
b arat
y x
ĠM K
Ġpen ahanan
ĠF ro
ot ek
ua ge
ĠKar tanegara
Ġpengh alang
ĠKom ering
Ġdiku burkan
H ana
J adi
R aden
s eh
Â ·
Ġ ÏĦ
Ġpen ambangan
Ġr u
Ġr it
ip a
Ġsek utunya
ĠAr ke
ĠSh el
Ġkor ps
av i
ĠLou ise
Ġtarik h
Ġsulung nya
ĠBala pan
Ġseper empat
Ġrohani wan
ikon duktor
c um
Ġ inginkan
in at
kan a
ĠS lav
ĠB enda
ĠB olog
Ġl l
Ġf re
ĠE sp
Ġpem otongan
ag uan
uda gar
ĠâĢ ²
omp okan
Ġdit elusuri
Ġmenc uci
Ġpend orong
Ġdim inati
Ġkomp ensasi
de z
ho ut
Ġpel osok
Ġdig emari
co unt
Ġmet ro
Ġå Ĳ
ĠNe il
Ġperl unya
onc ong
Ġmenyus uri
Mala ysia
ĠConnec ticut
L ep
k ari
y andu
an n
Ġk W
ĠT og
ĠJ uru
se jarah
ĠG ampong
os sa
ĠPem alang
197 2
ĠKim i
ĠRah mat
ĠUts man
ĠRevolusi oner
Ġbertambah nya
ĠJe ong
ĠPern yataan
ĠVilla ge
Ġtamp an
l s
ĠS etan
ĠP ilihan
ĠB iaya
ĠT rop
Ġf t
pat ri
ĠE ka
op en
Ġpro duc
esa inya
Ġbi ak
ĠAm anda
ĠMar cel
Ġpel uruhan
Ġst at
ĠPemb ela
197 1
ĠRos si
ĠFi ve
ĠCamp bell
ĠAla bama
ĠAst ro
ĠPerse baya
ĠPaku buwana
ĠBeb ek
ĠTeb ing
R encana
Ġse sep
ĠT ac
et su
Ġkar unia
li ch
Ġkep iting
Ġdit engah
Ġdis apa
ĠSh ik
Ġel ev
Ġpe lam
ĠMo unt
Ġprof essional
Ġterd eteksi
Is rael
Ġup ayanya
Ġlirik nya
ĠDim ulai
ĠHerman n
Ġboy band
ĠTad mur
ĠLemp eng
C amp
J ean
T B
g ri
Ġp ic
ĠS andra
or os
or sium
Ġber tiga
Ġber lian
ĠB oris
it ari
ĠD angdut
ĠR endah
ĠH P
ĠF ang
ula k
Ġpeng ampunan
Ġmemba cakan
orn ografi
ĠRe jang
lay er
ĠNag asaki
ĠAth le
ĠMik hael
Tan aman
Ġout put
Ġmorf ologi
M il
d rama
n abi
p ot
Ġmen tega
Ġr oll
ĠIn vasi
ĠG olongan
gu chi
mas yarakat
Ġv ag
Ġakhir an
ĠUn sur
upaya kan
ĠYo o
tra disi
ĠBas que
cam ata
ĠKop enhagen
M aria
j elas
Ġm ohon
Ġp lus
Ġb ra
Ġke damaian
ur al
Ġg ang
emu annya
Ġdik omposisikan
ĠAm angkurat
Ġap resiasi
Ġmon eter
Ġkemenangan nya
ĠWin ston
Ġne o
ĠMusta fa
ĠCamer on
ederhana an
C at
G ame
T uhan
V ic
W hat
h ost
Î ²
en ze
ĠP AN
Ġpen entu
Ġr esis
Ġn ikel
Ġf iraun
Ġg ong
ĠG lo
ĠKor upsi
ĠTh ree
ij ang
wi ja
visi on
old emort
ĠMich elle
ĠPur balingga
Ġneg erinya
Ġmengin ap
ĠHud son
ĠExplor er
Hang ul
M c
p lanet
ĠM net
ĠB adai
uk le
Ġf ak
Ġc ukai
ĠKe i
ain e
inta annya
Ġ11 2
ĠThe odor
yl um
ĠLu ft
ĠGu illa
ĠSed unia
ĠHo ff
Ġgel ang
Ġmenyimp ang
ĠGra y
ĠBin atang
murid nya
ĠYer emia
Ġkerum unan
B atu
D ib
N i
R h
Û Į
ar so
Ġt injauan
es pon
ĠP H
uk nya
ĠR and
ent as
ĠY ing
Ġsek urang
ont arkan
gen s
unt ah
Ġpe ziarah
Sa int
bor g
Ġsak ramen
fri ed
ĠAman at
Peri ode
H igh
d ri
p raktik
er mo
Ġs ate
Ġdi dasari
ĠM ia
te a
ĠL uke
unc uran
Ġbert unangan
ĠAg e
ĠTim o
ĠKep em
Ġdig arap
An ti
ĠHar bor
Ġelek trol
ĠComp uter
Ġsul fur
Ġmeri dian
Ġdipen jarakan
ĠShi eld
Ser angan
TM L
Ġp eka
ĠS ita
di se
Ġber ikan
ol oph
ĠM ilik
Ġh engkang
Ġ18 49
ont ong
Ġkom uter
Ġpemb atas
ĠAk adem
Ġtra uma
Ġkat up
Ġis olasi
ĠAnd h
ĠKam ar
Ġberc ita
Ġkaca u
ĠJam al
pin ang
ĠRog ers
Ġpemer kosaan
Ġmengeksp lorasi
ĠKri sis
A pa
Ġb adak
al ut
Ġke ji
ĠM arta
eh id
ĠJ enazah
and ong
ĠU trecht
Ġka camata
tr inya
ĠPer um
ac arita
Ġbers elang
Ġ18 46
Ġtak s
Ġpes tisida
ĠPas casarjana
ĠSer dang
Ġå ľ
Ġlingkungan nya
Ġdibentuk nya
ĠMur phy
Li fe
ĠCommun ity
ĠParam ount
Ġtengg orokan
Ġterob osan
S ab
ĠS udah
ĠS jah
ĠB io
ĠT ema
ro ve
ĠN ation
asa b
ot rop
ĠPer mus
Ġv isa
Ġterl estarikan
Ġkur va
Ġmengi dap
Ġrep orter
ĠEk aristi
ĠWar ri
Ġpre diksi
Ġstr es
ĠRaff les
C andi
M D
T U
f ect
Ġp antun
as tern
ĠS era
Ġmem ancarkan
ĠT anj
ĠC lass
ĠN in
ĠH ed
os um
Ġc i
ch ev
ĠY ale
Ġberk on
ĠSa vo
ck y
ton ik
Ġpenc akar
Ġpet enis
ĠCl ar
Ġrah ang
ĠPad ma
ĠPot ensi
ĠPener angan
Ġget aran
Ġsesep uh
O t
Y P
f um
o tif
t ze
Ġb ang
ĠP eserta
ĠA jaran
bu dak
Ġter jaga
ĠB asis
ĠI onia
ja ja
et en
Ġr adang
ĠG es
ĠF isi
Ġker ah
Ġdip rakarsai
ĠAm y
re as
Ġpemb eritaan
ern akan
aks ara
ĠYo uth
ĠEmp ire
ĠBlo om
ĠPhy tomyza
Phy tomyza
Ġmangk uk
ĠTenn essee
n Ã©e
w est
Ġdi dakwa
Ġin jil
ĠC anc
Ġc ontrol
Ġmel antik
Ġketi adaan
ĠNov a
Ġdig ubah
tab el
akar sa
Ġmah asis
ser angan
Ġdiak tifkan
Ġtr aktat
Ġterd egradasi
ĠDar atan
ĠLor enzo
Ġlum ayan
Ġpembah aruan
ĠKhal id
kum buh
Ġkorona virus
er itanya
ga e
ĠP adi
ek ali
Ġh enti
ĠR ush
Ġf ashion
Ġkar antina
ĠY at
end or
Ġsem ut
Ġberb atu
ug ar
Ġjenis nya
ĠRep ublic
ampak nya
Ke juaraan
Ġ185 8
Ġir isan
Ġali en
ĠGuang zhou
mid t
ecuti ve
B P
F ri
p ra
an tap
ĠS ima
eng aran
ĠA ula
ĠB ada
ĠN eh
Ġkon disinya
ĠAnim e
ĠSo ftware
ĠInd ependen
Ġketer tiban
Ġpenyer apan
Ġlel ucon
anth on
Ġrambut nya
Re aksi
Ġtent aranya
ĠXi ong
ĠHim alaya
ĠBrand enburg
O ff
al us
ĠA tau
ja bar
ĠN iki
id ul
Ġpeng amanan
Ġseb etulnya
Ġmel intang
Ġberk elompok
st anding
ĠJerman ik
Ġsejarah wan
Ġdig el
ope za
Ġtemb ikar
araf iah
dal ena
rem e
ĠStan ford
ĠRod ri
ĠPsik ologi
ĠPeck ham
L es
k ek
Ġm angga
ol le
ĠD esi
up ta
ĠN gab
ĠH omer
ĠSe o
ĠLa buhan
Ġat l
Ġmengi m
Ġsk uadron
edi t
Ġdata base
Ġrem ake
ĠSec ond
ĠJane iro
Cla thria
ĠCry stal
Ġblu es
Ġbertem akan
Ġdiund uh
Ġkelem baban
K eti
k op
l eb
Ġmen i
ĠA P
us u
ĠM utiara
Ġpen ump
Ġn ilainya
Ġser p
ĠV oldemort
Ġi OS
entu kannya
ĠTer catat
ĠSt en
10 1
ĠKeb ebasan
Ġram alan
ĠAz tek
As s
ĠKos ta
cap e
Ġpap irus
ĠXin jiang
C arl
á ¨
Ġm egal
Ġj urang
Ġmer iah
eg lang
ĠW oo
Ġdis empurnakan
Ġberl impah
ass er
ĠLu o
Ġjarak nya
ĠPan zer
Ġmengubah nya
Ġkan annya
Ġev akuasi
Ġarke ologis
Ġmemuncak i
ĠGand hi
ĠPenda ftaran
Ġb intik
ĠK oh
im as
Ġmeng unggah
ĠC yrus
Ġte am
usi ran
Ġmel oloskan
ingk uh
Ġmenye lam
ig as
Ġmemba ik
ĠFed eration
ĠManch u
oksida si
ĠSant os
tet ika
ĠMega wati
Ġpered aran
J uga
m l
s te
w orks
ik et
ĠA stra
it ahuan
ĠL A
ĠL up
ĠH ul
Ġker untuhan
Ġbi jak
ern o
Ġre aktif
ĠHar vey
unda i
ĠTrans port
Ġdes akan
Ġmemanggil nya
Ġtro fi
Bab ak
Ġraj in
Ġjan in
Ġkenc ang
Rich ard
embun yian
ĠKese jahteraan
at hi
Ġse sa
di yah
Ġter f
el ok
ba o
ĠI PA
ĠR osa
Ġc odice
ĠAr ashi
Ġ5 000
inggi r
aris sa
Ġi badat
isti rah
Ġ12 8
ry p
Ġlahir lah
Ġpener jemahan
ĠMela ti
Ġadministr ator
ĠMes si
ĠAlex and
ogen ik
Ġmendi ang
Ġpene gakan
ĠCy ber
ĠThera v
Ġtad inya
R ah
z hi
z za
Ġp angsa
Ġt emukan
as am
as ut
ari da
Ġke bajikan
ĠM arian
do ba
te kan
ĠC incin
ĠN ancy
Ġg ela
ant om
ep hal
ĠKe esokan
ĠTer bang
ĠKota waringin
oph ila
truktur isasi
unga gung
Ġå ·
ĠLou isiana
ĠArt ileri
Ġali gn
oor weg
Pers atuan
Ġkekh alifahan
ĠPendapat an
ĠMitch ell
- "
I k
T ok
g ur
t ema
y om
er min
di us
ĠB ia
Ġmem buru
Ġh aram
op olis
Ġker acunan
Ġmas ehi
Ġmenga lah
ĠSa ud
uni dia
Ġdih abiskan
Ġorgan is
unt ilan
ĠAnd rea
uma cher
ory x
ĠStar s
Ġbern omor
ĠKara eng
ĠYa o
Ġkod eks
Ġkosm etik
ĠQura isy
ĠBolog na
y ev
Ġter tawa
ĠR ita
Ġpro sa
ĠAl pha
ind y
ĠPr ing
ĠKu alifikasi
tual ang
ĠHo ok
ĠFilip us
ĠAri el
ĠBas el
Ġkre asi
ĠMcC artney
á¹ £
Ġhib ah
Ġkesus astraan
B al
T au
g umi
un k
Ġh elm
ĠR akai
ĠF ik
aya k
Ġo zon
19 67
ĠAk ta
form asikan
bi asa
Ġ! ",
Ġsis inya
Ġsup ran
Ġer osi
Ġdipercaya kan
tro cera
ĠSand y
Ġberkom itmen
. :
C ode
c ea
f ort
Ä Ľ
Ġm igran
am ent
Ġh p
ela ta
Ġla ks
ĠH eli
ĠF BI
ĠY uli
ĠV ista
ĠV ettel
Ġsu f
Ġv oli
ĠZ ee
inta inya
Ġwa cana
res h
ĠQ uran
Ġproduk nya
Ġmon itor
ĠDis ana
Ġdaun nya
Ġrah ib
Ġdipercaya i
ĠKab ar
ĠSena yan
Radi o
ĠGalil ea
P ros
× ĳ
Ġt ambah
Ġber adu
ta ck
ĠT ani
Ġh ol
Ġmeng kaji
ĠR iv
Ġr isalah
se wu
Ġla va
Ġka but
ili o
le ans
Ġdis eluruh
imp ahan
Ġmusi man
iwa y
ĠAir es
ĠSer ing
Ġsal eh
ĠPemb ina
Ġpendiri annya
ĠLingk ar
G K
R B
T otal
Ġs kt
Ġb akau
Ġb odoh
ĠB ord
ĠB ridge
amp us
ĠU sia
ĠE ar
ĠY esaya
Ġdik ukuhkan
Ġsen timeter
19 60
Ġdunia wi
ve z
ĠTe tap
sk aya
ĠYo on
Ġdibentuk lah
Ġkimia wi
Ar tikel
Ġkandang nya
Ġdef initif
bara wa
ĠYah oo
ĠZain al
ĠHugh es
ĠSev illa
ĠNes tor
g ara
s kt
v ate
Ġs antan
al um
ĠS iri
ĠP ali
Ġh emat
ĠN awa
ra i
ĠW hat
og ue
re is
Ġbers er
Ġga ding
ĠKar enanya
ho f
Ġpengh itungan
Ġ11 1
ĠSi ang
Ġanti bodi
Ġdukungan nya
ĠPi eter
Ġkeker ingan
Ġpenya lahgunaan
ĠJer emy
ĠTop eng
Ġdipert anyakan
Ġkerabat nya
cons in
A frika
C hi
S ik
b asi
r esif
Ġt umpang
al ore
ĠS angga
ĠD eng
ir in
ĠL ui
Ġg es
Ġw is
ĠE usebius
Ġak urasi
Ġterk endali
Ġdih indari
ĠAk reditasi
ĠNor dik
Ġspesi alisasi
Ġpandangan nya
ĠMiss ouri
Dr s
j Åį
y od
an te
am as
ir d
ro om
per caya
Ġw i
osi tas
ac etan
Ġsu ff
Ġkes eh
Ġmengh antam
Ġsep arat
inc ir
zi e
ĠMela ka
ĠKus uma
ĠPerb atasan
ĠLeon ard
Ġmenump as
dist ribusi
Bac trocera
Ġnur ani
A sh
S panyol
o ik
am kan
es ona
is c
ĠD evi
Ġg rand
ĠAm al
ĠSh ip
Ġme ga
ĠOr leans
men ga
ĠâĢĿ "
ĠDem oc
ĠSch umacher
ĠRa ider
ĠFlor ence
Î¿ Î½
ĠAja x
Ġnu buat
ĠYosef us
D it
Ġ ÏĢ
Ġ email
ap is
Ġmem anjat
it aman
Ġh ub
et in
ĠC ad
ĠH ik
ĠG lor
ida s
Ġc onc
ĠU ranus
usi on
Ġmeny ep
Ġsek etika
Ġal m
ĠMar ino
ĠX P
Ġpe jalan
ĠEks pres
ĠEm ily
Pro duk
ĠGa ul
ĠMis cha
ese kan
ĠFI A
Ġmengangkat nya
Ġmini atur
ĠNet flix
ekar angan
odon tha
Ġhidro karbon
Ġkesen jangan
b andingkan
h ilang
Ã »
Ġt elapak
am alkan
ĠK anak
Ġmem andu
Ġdir umuskan
atang i
entu ran
Ġdil estarikan
Ġre uni
ĠPeng epungan
ron ik
ĠEd win
ĠCon an
Ġperc abangan
Ġmelam ar
Ġrah mat
Ġdisa lah
ĠRama dan
led ore
Ġmenanam kan
anggul angan
Ġmenyeber ang
Ġgran at
Ġmemus nahkan
Ġsamud era
Ġbersel isih
graph ic
ĠPaya kumbuh
E I
la se
at su
di d
ol or
ul tur
he imer
Ġsej ah
ĠCh air
Ġkons ul
ĠAc c
Ġmenya lakan
Ġ23 0
ĠMon ica
ĠHa f
ĠDen nis
Ġ(, ,
del ing
ĠFat ah
ĠDri ver
Ġcangk ang
Ġmemat ahkan
M az
O T
P emenang
R ol
h ot
ĠP ath
ĠA H
ĠA ang
ĠM ab
ĠB hat
ĠD ob
Ġmer tuanya
eh ida
ĠJ ia
ĠE ras
Ġak reditasi
ĠAm p
Ġan arkis
Ġmemper gunakan
oc ladius
uc tion
20 24
ĠMer cury
Ġ24 0
Ġseg el
pen nis
andi t
Ġdirek omendasikan
ĠWis consin
Ġtri o
ĠRama yana
ĠLok omotif
Ġmengikut inya
Ġeti m
E X
K eka
S eh
x a
Ġd w
ol ic
ĠK aki
Ġper tiga
Ġl up
Ġr ev
ĠH S
Ġbers inar
Ġpela cur
ĠKar en
Ġind ra
eman n
Ġmet ana
ĠDep artment
ĠSum eria
Ġemp iris
Ġcem buru
ĠClo ud
ĠLock heed
B l
C har
P eran
p ola
ar ter
Ġt ot
ol ution
ek al
Ġl ep
ri sis
ĠL aj
ĠPer unggu
ĠPer for
19 68
ori zon
rom at
Ġtrans gender
Ġradi us
ĠEm ir
ĠMis sis
zh en
ĠYos ua
Ġkir inya
ĠPenye bab
E fek
ĠM angun
do v
ĠL ik
per a
ec ker
Ġsem ikonduktor
Ġkec ap
Ġ18 37
ern er
ca ust
Ġtak tis
ĠAng ela
ĠKor ban
trik er
Ġrem ix
bour g
ĠYam aha
ĠRol ling
Ġberpeng huni
ĠGuj arat
Ġorig inal
M ik
T L
y la
Ġd esi
Ġb row
el sen
Ġmeng adaptasi
Ġc he
ot in
Ġpeng atur
Ġmela yang
lak sana
Ġmener angkan
Ġkeh utanan
dis h
osp ace
Ġprofesional nya
Ġdek ret
cur ity
Ġelektro de
Ġmemaks anya
ĠGlas gow
enari onya
B ahan
B rit
D ragon
Ġmen tor
ĠM ih
Ġper iklanan
ro ho
ĠF ur
Ġpem en
ab ung
Ġgen erator
ĠMar tha
ĠKa valeri
men jadi
Ġperi badatan
Ġpenc erahan
Ġpenya mp
ĠInt elijen
ĠPrinc ess
ĠPub lish
Ġpengkhian atan
M oh
T F
Y ahudi
Ġb lock
Ġj elajah
ĠH aj
Ġc ome
ĠPer son
wan i
ĠAm r
tor e
ump ut
uli akan
ĠPang dam
ĠMo or
ĠSc or
Ġch ip
ĠVer sa
ĠFranc o
ĠPl uto
Kom isi
ĠSE A
bl em
S eg
T eknik
Ġt una
ya war
Ġh arafiah
asi um
Ġmeng arang
ĠR uk
ĠR apat
eg osiasi
Ġw ere
Ġpeng intai
st asi
uni versitas
ĠKor an
Ġbe tul
ĠSquid ward
C i
Ġp it
ti ang
ĠI p
Ġc ons
op ocera
Ġbesar an
ensi k
ĠKe ys
Ġkont ributor
Ġå ¸
Ġkeber l
ĠGro b
Ġberpen didikan
ĠMoh amad
Ð° Ñ
onfirm asikan
ĠSpir it
B unga
F ungsi
P KI
R eg
S eni
q ing
Ġ anya
at inya
ga ji
ti lasi
ĠB AN
eb an
ĠL h
ĠF ellow
Ġc am
op timal
ĠO ak
ĠO wen
aw ati
ĠMar ine
yat ta
ĠBa ba
ff ord
Ġgi m
ĠSar as
Ġditan ami
MI K
rok imia
ĠGal eri
ĠTir ta
Tra disi
Ġharm onis
Ins titut
Ġveget asi
ĠKeluar ganya
B ak
H ampir
K ode
W ah
k it
ek onomi
ama inya
Ġdik epung
Ġkep utusannya
Ġan alis
ĠZ am
Ġkap ita
Ġku bur
Ġob servasi
Ġbr ut
ĠHus ain
ĠTemp o
ĠFort une
ĠGog h
Ġmengab dikan
ĠHold ings
Que en
t om
w ide
Æ ¡
Ġ }
Ġk ipas
ĠM U
ĠM ina
ĠM ost
ĠB era
ja bat
ut en
eb all
ĠJ ah
os oma
Ġw h
Ġpem asukan
isi li
Ġdip raktikkan
ĠAm barawa
ber s
Ġmenyer tai
iss ance
ĠGeor g
ĠBu enos
ĠFer ry
ĠDu o
Î¿ Ïħ
ĠMek ah
ĠFl em
ĠPand eglang
ĠBav aria
B AN
B endera
C ambridge
h and
ol eksi
ĠB encana
asi akan
Ġr ing
ĠU C
Ġak ta
Ġal okasi
19 50
ĠPal ang
Ġpemba lasan
ĠBi ologi
Ġbel erang
Ġterm odinamika
ĠMeng gunakan
ĠTar una
ĠIk lim
mir al
ĠGel ora
Ġdri ve
ĠJatin egara
D usun
m ampuan
Ġd esktop
Ġt anjung
is sa
ĠM W
ĠD arah
ĠN ago
ĠE z
ati e
Ġor al
19 62
Ġpel bagai
10 5
ĠGr amedia
ĠIr ene
aru yung
ĠAli yah
Ġdibagi kan
ĠKek uasaan
Ġberkec epatan
ĠJami e
lun to
Rom awi
ĠOrig inal
J angan
p rop
si e
gi f
ung e
Ġg embala
Ġka idah
ĠO mar
Ġas pal
ob ik
ĠTer diri
Ġko dok
Ġdel ta
ĠSand ers
tt gart
ĠChin ese
ĠMoto GP
ĠChop ra
D il
d ha
Ï Ĩ
Ġmen anjak
ĠC ohen
se u
ĠN aka
19 69
Ġhal uan
ulasi kan
Ġkegiatan nya
ĠSy ari
Ada lah
Ġsy ariat
ĠMu ch
Ġbiara wati
Ġpor si
Ġmenyam akan
ĠKha ir
ĠKrish na
dÃ© partement
ĠKerr emans
ĠDumb ledore
K ita
P u
T ar
p ahaman
z am
Ġp ekarangan
ga ulan
lah u
Ġber badan
Ġter awal
ĠB lambangan
ĠI g
Ġpeng esahan
ĠâĢ ¢
re al
Ġo lahan
Ġket ahui
ĠPro tokol
ig en
ĠSh into
Ġsed an
Ġtinggal nya
sh in
Ġkontrak nya
ĠDar urat
ĠFir enze
ĠPun jab
P l
ĠS api
Ġmem adamkan
it aran
ĠF la
Ġpem buk
Ġser buan
Ġterp en
ton e
ĠPol i
ĠMah ayana
ric an
Ġketer kaitan
Ġeksp loitasi
ĠCla ude
Ġmal aria
L B
j ika
o pati
la yang
Ġk antung
ak ra
ul si
ĠL emb
eg em
ĠF oto
ip an
Ġbi o
ec ts
Ġmel umpuhkan
Ġkem urnian
Ġpemb entuk
ĠBer at
ĠPem bagian
ly tus
ey asu
ĠSte el
ĠPe ace
ĠAlex andra
ĠAf ro
ĠRas yid
ĠKl emens
Ġpangg ang
Ġkej uruan
ĠGuang dong
Ġdicuri gai
liter asi
Ġsejah tera
yawar atan
C T
J S
b eberapa
s anya
× Ĳ
Ġ ambi
er lang
Ġs perma
es ha
ĠD arm
up as
ĠC ure
Ġr angkap
Ġn ew
ĠO st
angk ang
Ġker aguan
wat er
imb un
ĠMin eral
Ġlog is
sip pi
ĠAdministr ation
Ġsak ral
ĠEff endi
ĠHea vy
P utra
d ek
r uh
Ġ ara
Ġdi are
ĠS ich
ĠK ingdom
Ġ( $
Ġl edak
Ġn inja
id ya
amp ok
Ġc hannel
ed u
tas e
ĠCh am
uti han
Ġkomp resi
Ġe xt
ĠRe agan
war ni
ĠBi ak
let on
Ġsor otan
ĠMora via
" /"
I K
M im
N eph
ti sisme
ĠB ik
Ġg enting
id emi
ep pe
ebih nya
Ġan onim
Ġkali grafi
ĠZ ur
por ts
Ġ12 2
Ġsp asi
Ġkal ung
ans elir
ĠIns tagram
ĠSuk ar
ĠSong s
Ġtran sistor
Ġobli gasi
G od
M or
P seudo
Ġt indakannya
ak ur
ĠP KS
ĠK ostrad
ĠD ekat
Ġmeng antisipasi
angg uhkan
Ġdik tator
Ġberp asir
ĠBr uno
ck er
ĠRom eo
osa ik
ĠTr ek
ys s
ĠSing les
Ġder etan
Ġfik tif
ĠShar ma
ĠBrah ma
Ġmenghi asi
ĠAvi v
Ġcem erlang
Ġdiap likasikan
ĠRafa el
P ra
S TI
l m
Ġt rik
em us
ĠS orong
ĠP ug
ĠK embang
ĠC e
Ġf asih
ĠG ejala
os ting
ant araan
ĠO se
Ġ18 41
ĠSh ort
ĠBer saudara
tain er
ĠCan ter
Ġpenyer buan
Penduduk nya
ĠBeng al
Ġpropor sional
ĠPrat ama
ĠDitu lis
ĠâĨ Ĵ
G elar
S tudi
ĠT ung
ĠT omas
Ġba g
ep ortasi
ĠF lash
Ġw hich
Ġberk iprah
Ġsel ektif
Ġga un
ebu ran
Ġkeh abisan
Ġins truktur
Ġberg egas
Ġnon aktif
Ġkela utan
Ġmena ungi
ĠHy med
ĠFin n
ĠWid ya
ĠEti opia
y as
er annya
il s
ĠA do
ĠM V
ir man
ĠL iter
ĠL antai
ĠL estari
Ġg ulat
Ġc ha
Ġka fir
Ġser v
Ġsen di
aya annya
ku asa
ĠGeor ges
Ġdif okuskan
ĠMag dalena
Ġ185 5
ĠCap itol
Ġseja wat
ĠLor raine
ĠRot ten
ĠMT s
ĠThom son
Ġsingk ong
ophron ica
k eh
w enang
Ġs yah
ĠK encana
Ġin skripsi
ĠT hir
emb elih
ĠW or
od end
gu ez
Ġar k
Ġkapal nya
ĠMad onna
Ġtur b
car aka
ĠWat ch
ĠCorn elis
ĠHend rik
Ġfem inis
ĠCep u
ĠBp k
G al
N g
P in
d ung
p abrik
r uang
Ġk uku
Ġb um
Ġse te
Ġmen injau
ari es
bu di
ĠM Ã¡
Ġj epang
las tik
Ġgen ap
gu er
Ġdic ap
ĠSp ar
Ġpet inju
Ġtangk apan
ĠCos ta
ĠMarx isme
Ġbant alan
Ġsubt ropis
f ish
g uk
Ġdan ce
ĠD amai
ĠC J
ĠF elix
ĠY G
Ġberk ons
Ġv o
Ġdil intasi
ĠMas on
bul us
ĠKons tan
Ġmenda ki
ĠMur ni
ĠMem ang
redit kan
Ġsekeliling nya
ĠBrussel s
ĠBry ant
Ġfis kal
Mask apai
D en
g ard
y ra
z ed
Ġmen anggung
ĠS ide
bu ri
ĠB rid
ut es
Ġl ang
ant hi
Ġw an
Ġbi lah
ani kan
Ġdib ungkus
Ġmemper barui
ĠKar ol
elah i
osisi kan
lt ra
ĠTh am
Ġbertu buh
ĠNa z
Ġberd atangan
Ġnya muk
ĠYu dis
ĠTri b
ĠAtlan tic
×Ļ× Ŀ
ĠBanj arnegara
ĠSawah lunto
B ang
H um
j alur
y it
Ġm isa
Ġdi pat
ĠD iri
ĠH ello
ĠG PS
ag oge
tap aan
Ġdip uja
aja ya
Ġditu angkan
Ġ12 7
Ġpers embunyian
Ġdih idupkan
sk opi
ĠAd anya
ĠKes elamatan
ĠKan on
Ġli ft
Ġpat ungan
Ġefek tivitas
ester ol
Ġpres tasinya
leksi kan
Ġmag is
ĠWeek ly
andas kan
K ara
R uang
R NA
h em
w ata
ĠP ack
Ġter organisir
ĠT Åį
ĠJ uri
Ġpen et
ep po
hir o
Ġdib enarkan
Ġmenga barkan
Ġmemba yangkan
ell idae
ĠHar m
ĠKu bu
ĠSk enario
ĠFri ends
Ġsim pati
Uni versi
kon sep
ĠLat ihan
Ġfe odal
ĠKarta go
g ers
Ġ anion
Ġd kk
il os
ĠI den
ĠT entu
Ġr ubah
ub o
op rop
Ġmeny empurnakan
aya ma
emp it
Ġal jabar
ĠKe ith
19 64
ĠLa u
fi q
ĠPeng endali
Ġtra gis
Per p
Ġpenc itraan
ass el
Ġ! ".
elak angi
Ġkesehatan nya
As osiasi
Ap abila
ier z
ĠSL TA
Ġberkep anjangan
ĠStep han
L unat
R ob
R ay
S on
e in
l oh
x in
ada kannya
Ġmeng emudi
ĠF uture
op p
Ġdik om
ov sky
ĠDi bangun
ĠKe turunan
aka f
Ġterp apar
Ġbek al
Ġkeempat nya
ĠFor bes
ĠÎ ²
Bi asanya
Ġteor ema
Ġhe ad
Lunat ipula
f re
Ġs port
Ġt araf
uk yu
ĠD osen
Ġh itungan
te au
ro d
ĠR iko
op ul
Ġmeny ita
ist ika
Ġditer imanya
ĠAs et
ton a
ema ah
ĠPas undan
ĠCor p
ĠMil es
Ġmeman ipulasi
ref ek
ĠOri gen
ĠMill idge
Kemen terian
Ġpig men
C all
H ym
O K
T entara
t Ã©
Æ °
Ġ 000
Ġd ella
ar et
Ġp awai
ĠS aksi
ĠP ont
ĠA aron
ĠK Ã¡
ti o
Ġmem inim
ĠD ESA
ul ingan
emb ley
ĠW ira
ch ne
Ġpeng k
Ġdik arang
tan anya
Ġdip rediksi
ho tep
Ġmah luk
ĠMo untain
ĠOrang e
En ter
ĠSas ak
ĠBre ak
ĠOli via
Ġpelar angan
ĠAis yah
oloph onotus
P ut
t ong
Ġd ur
el lan
do c
Ġ( =
Ġun der
ter y
se g
ĠL ogan
ĠIn fin
ĠG ate
ch is
Ġmemb eritakan
ingk ungan
ig ne
ĠAb idin
ĠLe gi
ĠSD M
Ġgug usan
ĠMana ger
ĠProf essor
Ġtersi buk
Ġpensi unan
Ġketidak p
ĠPersi ja
ĠDom ain
ĠPag aruyung
Ġdemonstr an
ĠNga wi
ĠTul ungagung
B ay
B uddha
H id
× ¨
Ġd eter
la va
Ġse galanya
Ġber angsur
Ġin tim
ĠB asi
ĠB ong
ĠB eli
ĠT it
ĠT angan
ĠL Ã¡szlÃ³
Ġa dopsi
ĠIn ti
angk ali
omp o
ka dia
Ġmat ematis
Ġbela diri
ĠMa uri
ff y
Ġberg ambar
ĠKeb angsaan
Ġinter val
Ph ilip
ĠCip inang
Mah abharata
ĠStu ttgart
ĠKeg ubernuran
ĠCim ahi
Ġtin dih
A dam
H omo
P ember
b orough
Ġk ang
as nya
am id
ĠS ter
ĠM ant
ĠD ow
ĠD jam
te ur
ĠC amat
ĠR ico
ĠN im
ĠH amp
Ġ20 21
ub in
ĠE S
ad ana
eber ang
Ġmel an
Ġket inggalan
ensi us
ĠSam oa
ĠSer ingkali
ink arnasi
ogen esis
Ġki per
Ġdon or
Ġredak tur
Ġambisi us
Ġmust ahil
ĠToul ouse
Ġpendak ian
espon den
Ġatl etik
B arat
w h
Ġ oli
Ġk ation
Ġt rig
ĠL U
wa d
Ġkon ver
Ġdib ersihkan
Ġberk h
Ġmenga itkan
ĠCh rys
est rial
Ġmenj unjung
ĠÂ ³
yo ff
ĠKes ep
ĠMon roe
ĠSed ang
Ġæ ĺ
ĠEx po
rus h
ĠÎ ¼
ĠBang gai
Ġdikeluarkan nya
Ġ185 4
Th is
ĠPlay er
ĠBlo od
Ġberker abat
A kan
t arian
Å Ļ
er anya
Ġs ian
ĠP ask
ĠP age
ek am
ĠL ec
emb aki
Ġc ic
ĠW embley
ch ina
Ġsem isal
olog inya
ĠIb lis
Ġpember dayaan
Ar g
Ġref leksi
pro ses
vel and
ĠTar biyah
Ġ185 1
Ġmeletus nya
rot oma
ĠRail way
Ġdiap it
Ġmuk jizat
Ġdiimp or
; ).
H A
k im
k ekuatan
m ungkin
İ ĭ
Ġs ambal
in annya
Ġdi ilustrasikan
Ġmen argetkan
ĠP entak
om intang
ĠR ash
ĠH ep
ĠV ari
og asi
Ġkon den
ic ola
disi plin
Ġga gah
Ġproses nya
Ġberm impi
ĠKon trak
ĠMak mur
Ġpin ang
Ġberd inas
Ġref orm
ĠLib eria
ĠBak rie
ĠStor m
ĠAndr Ã¡s
Ġketerlibatan nya
E v
O l
n ovel
r ung
Ġm arak
ur os
Ġmeng epalai
Ġf ar
per empuan
ĠF oster
ĠF okker
Ġpert anda
Ġmengh emat
Ġ6 50
Ġberp egang
ĠSek si
Ġ17 5
Ġmenja uhkan
Per jalanan
Ġsin onim
Ġpermukaan nya
Ġge omet
Ġteks tual
Ġni atnya
rol et
ĠNug roho
ĠTet angga
ĠInsp ektur
Ġã Ģ
Ġinflu enza
K ing
c ok
d ani
Ã ½
Ö ¼
la tor
Ġmen etas
ĠK urn
Ġ" âĢ
ĠT ud
ĠT ini
ĠJ angan
ĠG y
amp uni
Ġdip esan
Ġdir asa
Ġsep i
Ġpeny embahan
Ġmemp raktikkan
Ġkel elawar
ĠZ ag
ĠSh op
Ġterp isahkan
Ġpers ebaran
Ġhid r
ĠKem entrian
Ġgi g
Ġsus ter
ĠTra vel
ĠYou tube
Ġmena wan
Ġmar mer
fol io
W S
a e
l ist
n ak
u asan
ĠK ish
Ġin angnya
Ġmem angsa
ĠT S
ĠH ash
Ġkar at
Ġak ronim
Ġdit injau
ĠZ ara
ĠKal inya
ĠKan al
Ã³ r
ĠBal d
Ġdipas angkan
ĠSah abat
ĠWah ab
ĠPhilip p
ĠMand ela
Ġster eo
ĠCount down
Keh idupan
sesu ai
j ap
à °
Ġb asal
Ġper um
ĠD et
Ġmeng is
Ġr uncing
ĠN ie
tr asi
ad h
Ġsen sasi
ĠV or
th m
Ġberk elahi
Ġmengh ina
19 61
anc ed
ĠIslam ic
fr at
Ġjauh nya
Ġberper ilaku
ĠJac kie
ĠKen yatta
ĠNg urah
sing le
ĠProp insi
ĠTher esia
ĠJog ja
Ġmenun dukkan
Dep artemen
Ġberba yar
olep ta
Dani el
G N
N ar
Ġ Ġ
in os
Ġke tan
ĠA turan
ĠK edah
ĠK odim
ĠB ujur
ĠR ekor
ĠU lum
Ġw ing
lu askan
li us
Ġkem acetan
Ġ11 3
Di dirikan
Ġkas ino
Men teri
ahaya an
ker eta
Mas ter
nes ota
Ġaw alan
ĠPerse tujuan
Ġsw adaya
Ġkonstitu en
ĠSoedi rman
s yarat
Ġd ual
Ġk redi
Ġk uad
Ġt elak
Ġmen umpang
ĠS ister
Ġr ehabilitasi
ĠN A
ĠN enek
ĠL ist
ĠG N
ub ia
ĠAn jing
Ġpember hentian
ĠBe ver
ĠSunda y
ĠNic ola
sol ini
Ġmemu ja
Ġterbar unya
ĠDiam ond
Ġkekej aman
Ġbrut al
P ER
d ep
k lik
m esis
Ñ Į
Ġp uskesmas
ĠR icky
Ġf ran
ĠL ala
wa jah
Ġte tua
Ġmel ebar
ĠCh ester
Ġ18 14
oc oran
ilih at
Ġtak dir
uka inya
Ġhi pertensi
ĠInd ustry
Ġagr esi
Ġberte kanan
New s
ĠFree dom
á¸ ¥
Az har
G ro
U l
ĠS ra
ek h
im in
ro sa
ĠL ost
ĠF on
ĠO il
ni vora
era j
Ġpemb esar
ĠPr imer
ĠSh am
ĠKar el
jo lak
ĠPur nama
of on
Ġmakam nya
Ġpil kada
Ġth is
ĠOlymp ic
ĠNico las
D u
N as
P emba
t ang
Ġm ulus
Ġdi bagian
or ra
di en
di ff
di visi
ĠP uc
ĠB endahara
Ġh ang
endo k
ber dasarkan
ĠBr on
ĠTi ba
ĠBa bakan
ĠAd nan
Ġkol onel
iz za
Ġmon cong
ĠPet ra
Ġes tetika
ĠVer ona
Ġha ve
ĠStu art
kul in
istri kan
Ġbent rokan
B U
G E
L in
f oni
ĠS ulu
ĠI eyasu
te x
ĠC I
ĠC rim
ĠJ R
ĠR osi
Ġf enom
ĠH ond
ĠH ongkong
ĠCh ow
Ġkem uliaan
Ġpend inginan
ĠIs trinya
ĠKe jaksaan
Ġkel embagaan
ĠMan n
Ġmes ti
Ġtrans kripsi
ĠMe teor
Ġmis inya
ĠPh one
Ġbersa yap
Ġseksu alitas
ĠKari mun
ĠFat imah
ĠAer ospace
ĠDag ing
bre cht
Keber adaan
Semen jak
L P
U pacara
j inasi
y uki
y á»
tu mp
ĠP angan
Ġter ka
ĠD est
Ġj ahe
Ġl oy
ĠJ ustice
se la
se ong
ĠG A
angg an
ip i
Ġdis umbangkan
Ġal so
unj angan
ĠPal ermo
Ġpin us
ĠCom mission
Ġanti gen
ĠDis ini
Ġæ ĸ
ile o
Ġkebang sa
Ġpsik olog
Tim ur
Ġalum nus
Ġberik atan
ĠBach chan
optimal kan
mesis ternus
H D
P roduksi
b eck
es on
ĠM ons
ĠT ula
Ġf luk
Ġpem etaan
ĠSe ason
ĠV irus
emp arkan
ĠKe ti
oc us
ĠSa il
ĠLa o
ĠQ a
ĠKal tim
ĠTahun an
ĠCir cle
cus uar
Ð° Ð½
De wa
ĠStrat egis
Berb atasan
Ġperamp ok
Ġdilam bangkan
Ġpion ir
ĠAthle tic
D ewi
T ingkat
c ow
s sel
y uh
Ġk la
Ġber tab
ĠP aman
ap raja
Ġh igh
Ġl ink
ĠR RI
ĠH oh
Ġw irausaha
ĠE h
Ġpro bab
tan am
Ġmela yu
ĠV on
Ġmel angkah
th al
Ġkes tabilan
Ġ; ,
aj akan
ĠKec epatan
ĠSo et
men ya
ĠSy bra
Ġberg uru
ĠHam ka
ĠTy pe
Ġimper ial
ĠHerak les
Ġcup likan
Ġpand emi
Ġtaks onomi
N et
k r
r d
on don
ĠT ig
ĠT alang
ĠT yler
Ġh amparan
Ġl and
Ġr ab
ĠAm i
ĠPen ang
Ġberj angka
engk ol
ĠKer ala
Ġterc ermin
Ġdise wa
enn es
Pen er
ĠMark et
ĠEur opa
ĠSir ia
elek trik
ĠKeh adiran
tek i
Ġfir st
ĠSop hie
ĠEug ene
Ġterak reditasi
ĠGrob ogan
S anto
b enteng
d etik
m ini
x it
Ø ¬
en ankan
Ġt olak
Ġdi urus
ga lak
ĠA wan
ur ahkan
ti i
ĠD A
int h
Ġgen osida
eks inya
ĠBr am
ĠTh ebes
An n
Ġmengk onsumsi
Ġhid ra
ĠTrans jakarta
ĠPend ekatan
ĠBlu es
ĠCast le
Jo seph
ĠHid angan
ĠProv ence
Ġsulf ida
P ok
Ġb asil
ĠS ian
ĠM ode
ĠM edang
up lai
id u
ĠF lam
ĠY ap
Ġsem inari
ka win
tas ia
ĠCh ile
ki el
Ġmemper dalam
ĠMa eda
ĠMus solini
min at
sen i
ĠPar ma
Ġkulit nya
Ġ185 2
ĠKir giz
Le ague
Sy bra
Ġpenemu annya
romi um
ĠDak ota
ĠHolo caust
ĠTherav ada
l omer
o j
ar sa
ĠK satria
ek uan
ĠI bukota
ĠT R
Ġ( -
ĠH appy
ed ep
Ġmemb imbing
ĠCh at
uran ce
arah ap
ĠAnim asi
Ġku ah
Ġseri es
Ġ11 6
tian us
co ver
Ġmet rik
Ġis tananya
ĠNe ver
ĠÎ º
ĠAnt artika
UN G
ĠHend erson
Ti onghoa
ĠRy ukyu
vir on
It alia
Ind ustri
Ġtong gak
Ġkecok latan
ellig ence
Ġdisad ari
ĠMissis sippi
Ġanya man
ĠYudis tira
R oyal
am ak
ik ah
per m
ent ris
ĠY amato
Ġdit aklukan
ĠDi alek
ev ard
Ġdim inum
Ġterk umpul
anta inya
sp ot
ĠSan jaya
ph us
ĠPor os
ĠUk ur
Ġur in
misi kan
Ġpenyimp angan
onim us
Ġit em
Ġekonom inya
ĠBuild ing
Ġkompatib el
O ut
S ama
b eli
i asaan
Ġdi unggah
ti ar
ek onomian
im antan
ĠC R
se latan
ĠL Ã¼
ĠH ap
ĠF uj
Ġpem angsa
ĠAr is
ew ak
ac le
tor ium
ĠKa in
Ġbaik nya
ell ite
Ġmobil itas
ĠRe in
ĠInd ependent
Ġturun nya
ĠHel ena
CA F
La ut
Ġinstr umental
Tur ki
Ġip arnya
K et
P ohon
ya min
Ġmen iti
Ġmen ampakkan
on do
ĠB usan
ĠB ombay
ĠC V
ĠF ashion
Ġpeng undian
Ġpemb entukannya
oc oc
ĠTim nas
Ġmener obos
Ġberl angganan
Ġput ar
Ġberisi ko
ĠPe perangan
ĠMi guel
ĠBh akti
abit at
ĠChrist ine
onan si
Ġfon em
Ġlengk ungan
ĠOrch estra
bott le
F ar
P asi
m ern
t eknik
ta ire
ĠB ok
ut nya
wa ffe
ĠE qu
ĠW uhan
angg aran
Ġpeng endara
Ġmemb ongkar
ĠSe curity
uc ker
ĠAs uransi
ĠOr egon
ji wa
Ġasal kan
ĠAc tion
Ġtemp e
ĠPri ok
ĠMeng ingat
tag ne
Î± Î¹
Ġmemec at
J er
O A
m ut
Ġm untah
at aran
Ġmen dasari
es alan
is se
up p
ĠC atur
Ġpen asaran
ĠF rom
ab isi
imp ung
ĠZ oro
ĠSa ga
ĠCol in
Ġ13 2
tember g
Ġdibangun nya
Ġpemimpin nya
trik e
Ġmengin tegrasikan
ĠMeng enai
entral isasi
ĠKot ak
Ġpelaksana annya
Ġgal angan
Ġnik ah
ĠMagn us
C as
P ier
Ġp impin
Ġp ornografi
Ġmen usuk
ĠS ia
ĠS eseorang
Ġter eliminasi
ĠK ud
ĠM ono
Ġmer angsang
ĠN adu
ĠO K
Ġseb erat
le ar
ka wa
Ġv oting
dik lat
ĠBel le
Ġkomp ak
Ġpenc emaran
Ġbis bol
ĠSat ria
hasil annya
Ġ185 6
col m
Ġfir man
Ġperamp okan
Ġarist okrat
P ark
U mum
b aling
c m
Ġd am
Ġk anji
ĠD rop
ĠF ron
Ġmeny isi
Ġak sen
Ġdib iayai
ac ia
ev ara
Ġpas ta
ĠKor esh
ĠSam aria
Ġmur ka
ĠKu omintang
Ġpember itahuan
Ġkela yakan
ĠSul e
Ġsay embara
ĠFal con
Ġberna ung
h ima
s ya
s pesies
Ġb ingkai
bu ang
Ġter bawa
ĠT B
ĠN ada
ĠL eh
os ol
Ġsa bit
amb ila
Ġant is
aw k
Ġsel aras
ĠPem buatan
Ġand il
son i
Ġkor up
Ġlingk ar
ĠPh D
Ġlem ari
ĠMon aco
Ġnovel nya
ĠJose f
ĠLeg enda
ĠSU CI
dig ma
Ġtela dan
Hen ry
ĠÌ ģ
Neph rotoma
F E
F M
Y u
Ð ³
Ġd eng
Ġm istik
in f
in ingrat
Ġb aling
ĠI sis
ĠJ ew
Ġf ib
ĠL P
ĠL ig
ĠH ilton
ĠV e
Ġsem p
Ġbert engkar
Ġ16 5
ĠSp encer
ĠSur yani
ĠMin nesota
asiswa an
war upa
Ġgel embung
ĠEnter prise
mus uh
peng uasa
km enis
Ġmag ma
Ġpala wija
yeksi kan
Ã¼l ler
B enz
G empa
W at
er ina
Ġm utiara
ĠM ira
ĠI oan
ĠD jar
Ġl elang
ĠR antau
Ġg ambut
ĠH arahap
ĠF und
Ġmeny unting
ĠY ustin
Ġsek u
Ġal fa
Ġsel ang
art is
ĠPro duser
19 63
ĠKr u
endah kan
ĠSer am
ĠAt las
Ġpenj elajahan
Ġes ensial
ĠSuk oharjo
cht enstein
ĠBiz antin
Ġmaksud nya
ĠMam luk
tit atif
Ġsubstansi al
Ġmenip u
ĠÃĨ th
Ġpencalon an
kmenis tan
; ),
Ġp ati
as wasta
el et
ĠK iss
ĠD ila
ĠR oc
ĠH endra
ĠF arm
Ġsa udagar
ĠU jian
ĠY og
ĠCh ick
ju di
Ġkeh itaman
Ġmod us
ĠTh alib
aks inya
ĠTe en
agu y
ĠTel ekomunikasi
ĠEm il
ĠBur ton
Ġlebar nya
aton ya
elek tron
kel urahan
Ã¼r t
ĠLok al
ĠJat im
Din asti
ĠTerp adu
Ġterper angkap
ĠAuth ority
J e
d ol
f ly
y arkan
Ġs antai
lah oma
ir ut
Ġl orong
ri ya
Ġpen is
Ġpen entang
ĠR SS
Ġn ota
ĠL ept
ĠIn dex
ĠG alang
ot il
Ġmel uncur
ni ck
ic ester
ublik asi
Ġdin onaktifkan
ill ing
Ġkont ribusinya
ĠMala ikat
ĠOl ga
ĠNo er
dial ek
Ġmengk lasifikasikan
Ġli gan
ĠMr s
Ġterti dur
B ook
J l
L O
N egeri
S ol
Y ayasan
j eng
n ahan
p ad
at rik
Ġdi adakannya
Ġter lama
ĠK alib
ti men
ap ung
Ġf ungi
ĠL il
ĠAr k
ĠCh ase
ber at
Ġpop ular
Ġkata i
Ġdic irikan
ĠGu yana
ĠBe e
Ġid ol
ĠSir egar
Ġmag ister
ĠSik ap
Ġpendah uluan
ĠTrin ity
ĠPene tapan
Ġpembeda han
ĠTajik istan
Ġpneum onia
ĠSangga u
H z
K elas
T R
b da
n ormal
Ġdi usahakan
Ġse arah
ga gasan
Ġ2 12
om us
ĠJ awi
wa ve
ĠH ank
ĠF rans
ĠW atan
Ġpeng usiran
ĠKr on
ongk ol
Ġst ok
aks inasi
ĠSk ep
ĠMuslim in
ĠOn g
ĠRober to
ĠGra f
Ġà ¸
Ġanda l
alk ohol
Ġcom edy
ĠAN TV
Win dows
ĠDed dy
B as
r ahan
al t
eng ers
ĠC ore
Ġpen angkap
ĠR onal
Ġr amping
ĠN ET
ot ot
Ġpeng alihan
od ong
Ġbert akhta
Ġdiper baharui
Ġberh aluan
ungk ung
disi al
ĠBr istol
ĠKal la
Ġmew arnai
igh ting
ĠUr du
ĠRes er
odo han
Ġfavorit nya
Ġaf iliasi
Ġintegr itas
ĠFinan cial
C iri
N E
Y esus
b ria
d arkan
ing ungkan
ĠB ambu
ov ic
ĠKe te
entu ra
ĠBer m
de eling
ji e
Ġst atis
Ġdep uti
ess y
ond ensi
ĠDis c
ĠBu ff
ĠPet ernakan
Ġsup orter
Ġsim etris
imi yah
Ġberke inginan
ĠTeg uh
ĠPab lo
ĠGap eka
viron ment
ambila lih
1 10
c z
p ejabat
ar utkan
si gn
ta il
ĠB PS
ĠD ih
eh e
Ġla bu
ĠF ra
ĠY ok
Ġseb atas
ĠAl d
ac tion
ĠX L
Ġ11 8
ital isasi
Ùİ Ùĳ
ĠRus sia
Ġbangun annya
ĠPG RI
Ġip ar
stasi un
ĠNago ya
N AS
b annya
Ġk im
Ġt eka
em in
di tas
ĠG K
ĠF itz
ĠF alk
ĠU din
angg ilan
amb ik
Ġdik et
Ġdis unting
Ġpr ima
ig in
ef ore
Ġek u
Di visi
Ġkal k
Ġhukum nya
Ġpenc uri
ĠGr en
com une
ĠZh en
Ġlong gar
Ġganj il
aguy uban
G O
J uni
L ib
S ay
c ut
s ti
y na
y hur
Ġ arang
Ġm apan
es anan
Ġper gaulan
ĠD AS
ĠT ow
Ġa ward
ĠG ita
ot ti
yu z
Ġkem a
Ġpela poran
iwa yat
ĠSin dang
Ġters erang
ĠRo te
ez kiel
ĠHam as
Ke adaan
ĠMi esz
Ġdire visi
ĠHon or
Ñģ Ðº
Ti ongkok
ĠNT T
cul es
ĠYaz id
ĠBish op
W arna
e ira
r eb
s z
x ing
el uler
ĠB ub
ĠT ell
ĠU sh
Ġsek itaran
od el
ab ilitas
ist in
Ġkon d
Ġkon frontasi
[...]
